#version: 0.2
e n</w>
i n
e r
t h
e r</w>
c h
c h</w>
a n
e i
e n
s t</w>
h a
i e</w>
u n
a s</w>
e s</w>
o u
s t
a r
o n
a l
e l
in g</w>
i ch</w>
th e</w>
o u</w>
o r
a u
t o</w>
e in
r e
i n</w>
o n</w>
w i
g e
i s</w>
t e</w>
y ou</w>
a n</w>
i ch
i t</w>
t i
s ch
e d</w>
o m
t s</w>
a t</w>
l i
b e
n o
i st</w>
I ch</w>
d i
a s
an d</w>
o l
ei n</w>
r i
v e</w>
d er</w>
r o
e s
ich t</w>
er e</w>
m a
o f</w>
o r</w>
m e</w>
n icht</w>
ha t</w>
un d</w>
d ie</w>
w as</w>
d en</w>
r a
l e
v er
b e</w>
e h
u r
s a
th at</w>
a b
t en</w>
w a
k e</w>
d as</w>
i l
T h
ein e</w>
d e
l o
u t</w>
l e</w>
s i
g en</w>
s e</w>
i r</w>
d e</w>
S ie</w>
h i
l a
g h
d u</w>
e a
s o</w>
r e</w>
e t
n d</w>
z u</w>
al l
g o
c k
y ou
t h</w>
g e</w>
t t
u s
no w</w>
ou t</w>
b en</w>
h e</w>
l l</w>
n e
c k</w>
gh t</w>
d a
w h
th is</w>
c e</w>
I m</w>
s e
f or</w>
D as</w>
el l</w>
i t
s p
f ü
i h
d o
as s</w>
m it</w>
f f
h o
t e
an n</w>
u m</w>
en t</w>
t er</w>
u st</w>
in d</w>
t a
al l</w>
m y</w>
s ie</w>
i e
w ei
on e</w>
ha ve</w>
Y ou</w>
wi r</w>
i s
e y</w>
ch t</w>
b er</w>
d er
ou l
un g</w>
on t</w>
ar e</w>
e m</w>
a l</w>
m m
k now</w>
S ch
au f</w>
an t</w>
n t</w>
i r
d ass</w>
s en</w>
o o
f a
w e</w>
wi th</w>
t er
no t</w>
p p
wa r</w>
n a
t r
ein en</w>
ol l
d o</w>
c om
l ich</w>
you r</w>
oul d</w>
th ing</w>
A nd</w>
en n</w>
g en
ch en</w>
E r</w>
L e
j ust</w>
u r</w>
li ke</w>
m ir</w>
w e
ti on</w>
t o
fü r</w>
v on</w>
l y</w>
E s</w>
a t
b er
O h</w>
d ont</w>
w or
v er</w>
W ir</w>
n en</w>
k a
D u</w>
m ich</w>
U nd</w>
m en</w>
b a
l ei
th in
w hat</w>
g t</w>
g i
s u
h ere</w>
au s</w>
m an</w>
o p
e l</w>
e m
r u
W as</w>
v i
ge h
u p</w>
ei t</w>
g u
h r
h er</w>
all y</w>
s om
ab out</w>
w er
s ind</w>
g o</w>
u s</w>
ha be</w>
I ts</w>
al s</w>
th er</w>
d s</w>
s ich</w>
wi ll</w>
ge t</w>
A l
f or
J a</w>
z t</w>
c an</w>
wi r
e u
g a
ri ght</w>
w ie</w>
di es
ha ben</w>
de m</w>
k ing</w>
y s</w>
s h
w ar
m o
Th e</w>
s eh
W hat</w>
e x
b o
b ut</w>
p o
a c
k om
en t
m p
on n
d ich</w>
S o</w>
A n
b r
i ts</w>
G e
ö n
er t</w>
m e
in e</w>
N o</w>
b in</w>
c on
p e
f u
f t</w>
o d</w>
D ie</w>
ü r
el l
ha ts</w>
go t</w>
w ere</w>
t u
hi er</w>
re a
ka y</w>
B e
m us
ou r</w>
s sen</w>
ab er</w>
un s</w>
M a
V er
n ur</w>
z u
m i
f e
ea h</w>
g er
i mm
W e</w>
thin k</w>
f ro
d en
et zt</w>
ch e</w>
d y</w>
p a
wa y</w>
a m</w>
p ro
ein er</w>
o w</w>
no ch</w>
hi m</w>
en d</w>
n e</w>
b t</w>
ur e</w>
i m</w>
f i
c a
r y</w>
A ber</w>
au se</w>
w n</w>
i d</w>
t z
m or
fro m</w>
s ein</w>
o h
di r</w>
s el
p er
W h
H e</w>
i f</w>
g s</w>
W ell</w>
I h
d nt</w>
t ra
q u
ma l</w>
st e</w>
ein em</w>
N ein</w>
w ant</w>
ho w</w>
h is</w>
g l
ä n
th ere</w>
ö r
B ut</w>
au f
c i
li e
Y eah</w>
an d
st en</w>
k ann</w>
n o</w>
z i
c o
u m
au ch</w>
u l
t ed</w>
st er</w>
f in
th ey</w>
onn a</w>
k ön
ti me</w>
d a</w>
g h</w>
g onna</w>
be i</w>
f f</w>
lo o
l an
som e
r ei
n i
t te</w>
J a
w enn</w>
ti on
e t</w>
go ing</w>
A u
wir d</w>
ih r</w>
e y
st a
au s
i g
p ar
e ar
D a
f e</w>
you re</w>
es s</w>
w oll
ha st</w>
se e</w>
mus s</w>
d r
ver y</w>
p re
ch te</w>
h el
S t
g an
on g</w>
c ause</w>
Y ou
ha d</w>
v or</w>
N a
U n
p la
Th is</w>
w ould</w>
wei ß</w>
b ei
ih n</w>
be en</w>
ha l
sch en</w>
ne ed</w>
m u
R e
ol d</w>
A r
an n
I t</w>
ba ck</w>
w o</w>
w ä
m er
seh en</w>
i c
di d</w>
W ie</w>
f en</w>
k s</w>
sch a
h es</w>
S p
T hats</w>
er s</w>
d ar
g el
d es</w>
O kay</w>
m eine</w>
er en</w>
y ing</w>
g ut</w>
g er</w>
ü ber</w>
ou gh</w>
r an
st i
go od</w>
eh r</w>
an y</w>
D i
sch on</w>
l u
er es</w>
te t</w>
b y</w>
E n
ri e
es e</w>
T a
j etzt</w>
a r</w>
com e</w>
il l</w>
W enn</w>
h l
om e</w>
op le</w>
j e
s oll
v en</w>
mor e</w>
S a
H ey</w>
t al
wh en</w>
s on</w>
s o
M ar
et was</w>
s he</w>
na ch</w>
da y</w>
tt er</w>
an y
ha pp
st eh
un k
re ally</w>
s s
ol l</w>
v or
imm er</w>
ou r
all es</w>
ver y
o der</w>
b ist</w>
c ould</w>
i el
P ro
h er
g re
H es</w>
som e</w>
w ür
un s
th em</w>
ie l</w>
I n
or t</w>
c t</w>
d ann</w>
ti g</w>
wer den</w>
ma ke</w>
ha s</w>
D er</w>
o m</w>
di dnt</w>
c ant</w>
l ich
kom men</w>
pe ople</w>
w ur
Y es</w>
l es</w>
e p
H a
th a
wh o</w>
st ar
I ll</w>
ü ber
W a
an k</w>
s c
ea r</w>
as e</w>
You re</w>
t y</w>
geh t</w>
m ehr</w>
il l
sa y</w>
k eine</w>
do wn</w>
b u
o ther</w>
t ing</w>
er n</w>
E r
I n</w>
m in
h ä
oo k</w>
R a
k en</w>
m ü
r ü
ha r
el t</w>
tha ts</w>
th en</w>
le a
i g</w>
m ein</w>
ma cht</w>
I ve</w>
v ing</w>
L i
ge f
w an
o ver</w>
z e</w>
T hat</w>
s or
h in
l l
ich ts</w>
A b
ta ke</w>
d ing</w>
wh ere</w>
u te</w>
gl au
N o
I f</w>
l as
g ro
k t</w>
ei ß
wi e
w er</w>
ir st</w>
an ce</w>
tt le</w>
al so</w>
t t</w>
o b</w>
t es</w>
br au
j a</w>
hr en</w>
some thing</w>
d ur
m il
al le</w>
oo d</w>
m t</w>
s s</w>
ma chen</w>
lo s</w>
e very
C h
e p</w>
k l
sa gen</w>
n er</w>
t ell</w>
S ta
v el</w>
o ff
p as
en s</w>
in to</w>
be cause</w>
o und</w>
th an</w>
f ri
sa id</w>
S e
ou ght</w>
d re
o ff</w>
scha ff
W ar
el y</w>
o se</w>
p e</w>
gi bt</w>
s ich
vi el
n ichts</w>
do ch</w>
w ell</w>
t re
g ra
z en</w>
s en
sa g
an s</w>
m on
me an</w>
P o
un der
s ho
an der
in s</w>
tu n</w>
b le
to o</w>
b el
wur de</w>
kön nen</w>
do ing</w>
z um</w>
r ä
ha tte</w>
H ow</w>
loo k</w>
f irst</w>
an ke</w>
A ll</w>
wie der</w>
K om
ur ü
ne ver</w>
h r</w>
in t</w>
dies e</w>
0 0
w in
un gen</w>
seh r</w>
ih m</w>
N e
t or</w>
al i
o kay</w>
a d
li ttle</w>
p u
R o
sh ould</w>
b le</w>
sel f</w>
n ie</w>
geh en</w>
woll te</w>
te st</w>
d es
lei cht</w>
W e
ab le</w>
sch e</w>
w s</w>
ein fa
z ei
t ri
ou s</w>
de t</w>
sa gt</w>
r in
mü ssen</w>
z urü
st ell
m ent</w>
d u
F re
it te</w>
kön n
Wh y</w>
eh t</w>
F ra
on ly</w>
k e
N ow</w>
D o
ge sch
wür de</w>
wor k</w>
mu ch</w>
k en
u p
F a
E in
M y</w>
on s</w>
Ih r</w>
t wo</w>
d ent</w>
Th ey</w>
G o
S he</w>
in ter
k ed</w>
o s</w>
lo ve</w>
t ten</w>
g r
einfa ch</w>
w oh
M ann</w>
Le vel</w>
el i
ä ch
Z eit</w>
it y</w>
E in</w>
C a
v iel</w>
wi ssen</w>
s in
ei r</w>
k es</w>
i m
th ese</w>
m ö
st and</w>
s ch</w>
st or
un g
C o
thin gs</w>
ne w</w>
ey re</w>
n ing</w>
c re
i ght</w>
a tion</w>
M en
P ar
f re
b st</w>
v es</w>
la r</w>
e ven</w>
th eir</w>
i ck
t ur
ol e</w>
g ing</w>
a f
t sch
fu l</w>
M on
M r</w>
b en
ma de</w>
B r
u n</w>
p le
ß en</w>
n eh
Al so</w>
B ea
n ung</w>
hel p</w>
a ga
m is
I st</w>
kom mt</w>
s ure</w>
tt ing</w>
i er</w>
D anke</w>
k lich</w>
m es</w>
s ed</w>
i ce</w>
wä re</w>
da mit</w>
o b
for e</w>
wa ys</w>
B a
r en</w>
wer de</w>
m ar
eu te</w>
eu ch</w>
e st</w>
p h
d eine</w>
un den</w>
si on</w>
wei l</w>
oo l</w>
m an
we i</w>
l au
st ill</w>
i k
h ör
e ver</w>
ar d</w>
sor ry</w>
d ed</w>
st u
ä u
wh y</w>
F or
D o</w>
t en
i de
b ra
th ought</w>
M an</w>
C ar
st o
lo t</w>
Th ere</w>
u h</w>
br in
bo dy</w>
ge ben</w>
W ei
r ough</w>
ear s</w>
a te</w>
v ed</w>
h ea
c u
un ter
I s</w>
sp e
s on
a u</w>
lei d</w>
D ann</w>
el e
y be</w>
m s</w>
W ere</w>
i li
ein es</w>
f er
Le ute</w>
oul dnt</w>
s k
m a</w>
gi ve</w>
p r
f il
L a
J etzt</w>
D ont</w>
L ook</w>
K a
m en
r ich
E x
t or
li fe</w>
f ind</w>
re c
war en</w>
l in
tal k</w>
s er
rea dy</w>
g st</w>
au en</w>
a de</w>
D e
sag te</w>
pla ce</w>
J ust</w>
eh en</w>
be fore</w>
any thing</w>
M u
th ose</w>
mo st</w>
w om
s oll</w>
Ih nen</w>
u e</w>
th rough</w>
A mer
p ri
re d</w>
M o
L ei
h eit</w>
ar bei
Z u
ck en</w>
F ran
dur ch</w>
F il
ü n
j em
wan ted</w>
d ri
las sen</w>
la st</w>
s ol
le tz
gre at</w>
c our
le t</w>
z wei</w>
or t
wir klich</w>
es s
W i
p ut</w>
l d</w>
e st
ge t
ch ten</w>
ble m</w>
b ab
w al
c lo
es nt</w>
d enn</w>
ti ve</w>
f ra
War um</w>
Le ts</w>
dies er</w>
k ann
Ge sch
gu ys</w>
f ol
d one</w>
y ears</w>
si dent</w>
A re</w>
bel ie
b ro
0 0</w>
z ur</w>
sa mm
k ein</w>
si ert</w>
al ways</w>
V iel
l er</w>
be g
C ome</w>
w en
th re
s eine</w>
happ en
h eute</w>
G od</w>
fe el</w>
ei l
W hats</w>
be ing</w>
Th ank</w>
p s</w>
h ome</w>
l ü
i mp
ni ght</w>
f an
st e
ck ing</w>
O r
k i
all en</w>
r ong</w>
U S
si de</w>
ge macht</w>
el le</w>
S or
D a</w>
h ear
h ol
ca me</w>
G en
ger ade</w>
I d</w>
s hi
Th eres</w>
ga r</w>
ck t</w>
b lei
u t
hä tte</w>
H er
Le ben</w>
hal ten</w>
ar ound</w>
tion s</w>
könn te</w>
gen d
a way</w>
T o
M or
k ind</w>
b lo
ff en</w>
aga in</w>
af ter</w>
as s
do esnt</w>
c es</w>
ver su
t ure</w>
do es</w>
V or
soll te</w>
n er
ba r</w>
wi ll
th eres</w>
d in
c ar
Wh en</w>
l ong</w>
st imm
s y
ch an
at ed</w>
Al s</w>
ge sagt</w>
h ei
al e</w>
un de</w>
t old</w>
st ra
l and</w>
ar y</w>
der n</w>
om ent</w>
every thing</w>
woh l</w>
tr y</w>
m einen</w>
x t</w>
t ro
sich er</w>
Go tt</w>
ou se</w>
d an
s si
ck s</w>
a tt
schaff t</w>
be tter</w>
eiß t</w>
tu ally</w>
el d</w>
M in
B o
zurü ck</w>
h re</w>
W o
woll en</w>
un ter</w>
c tion</w>
m em
ie m
i l</w>
h l</w>
Fra u</w>
com pe
da chte</w>
p l
w us
S h
k er</w>
cour se</w>
k eit</w>
a d</w>
a b</w>
P er
K on
z ä
ka m</w>
n ed</w>
m any</w>
el n</w>
M ein</w>
fin den</w>
d ein</w>
c or
Ne w</w>
k no
di ff
ör t</w>
c all
be ss
re den</w>
N icht</w>
p i
g ir
w ent</w>
steh t</w>
M eine</w>
D ar
ä r
sch n
t s
V a
ö n</w>
m m</w>
er st</w>
g es</w>
ch st</w>
glau be</w>
compe ti
G ut</w>
A us
su pp
gu y</w>
No t</w>
wh ich</w>
a pp
h an
S te
G ood</w>
s h</w>
ke ep</w>
b i
S hes</w>
hl t</w>
H o
E ine</w>
w as
tr ying</w>
ch e
b ar
J e
com ing</w>
t ung</w>
en ce</w>
P unk
L u
B ra
v o
il li
P re
Ih re</w>
G r
Al les</w>
p er</w>
m ein
dies em</w>
b li
C ol
viel e</w>
t z</w>
K in
n is</w>
we gen</w>
si eht</w>
c le
au m</w>
s ur
is ch</w>
b is</w>
you r
G re
wor ld</w>
g y</w>
ge sehen</w>
b itte</w>
O k</w>
G er
u ten</w>
L ie
s m
belie ve</w>
tz en</w>
l t</w>
e sti
b l
P la
sa ge</w>
b rea
oh n</w>
Ta g</w>
st er
ne xt</w>
H all
ne e
is s</w>
ih re</w>
gan z</w>
C an</w>
ander en</w>
t ut</w>
na me</w>
g lei
e very</w>
dies es</w>
W er</w>
ä t</w>
us ed</w>
tt a</w>
k onn
ß e</w>
sh es</w>
c ra
H ier</w>
Au f
t ly</w>
ver sch
po in
qu i
o wn</w>
hl en</w>
zu samm
us s</w>
t on</w>
sa me</w>
Hall o</w>
t lich</w>
neh men</w>
kann st</w>
M i
K or
pas siert</w>
sp iel
s how</w>
ei l</w>
l ä
P a
un d
Men schen</w>
W elt</w>
ung s
ir gend
an other</w>
a ch</w>
B er
tr u
steh en</w>
b ig</w>
m it
en ough</w>
ac tually</w>
c all</w>
S ti
f ä
U h</w>
il e</w>
es en</w>
dies en</w>
Kom m</w>
an i
F ü
mi ght</w>
ide a</w>
fri end</w>
es o</w>
c ol
b ri
se con
m einer</w>
f ine</w>
de st</w>
poin ts</w>
w ing</w>
ti c
s ha
ou s
i ert</w>
happen ed</w>
h ear</w>
co un
Viel leicht</w>
M ex
s et
S i
K ön
to p</w>
b la
mi tt
loo king</w>
Z ei
r en
ff e</w>
wi th
mm er</w>
m einem</w>
ge ther</w>
Y or
ge tting</w>
brin gen</w>
W o</w>
G es
Be cause</w>
was nt</w>
th eyre</w>
th e
Va ter</w>
w ont</w>
sh it</w>
s st</w>
d ge</w>
ul di
in v
Th en</w>
D es
g al</w>
S u
en ti
bo th</w>
z a
we g</w>
thre e</w>
k einen</w>
sel bst</w>
go tta</w>
hör en</w>
w rong</w>
ro om</w>
hel fen</w>
el s</w>
bess er</w>
be st</w>
ß t</w>
en ds</w>
C on
to gether</w>
no thing</w>
h and
b eit</w>
s ei
h in</w>
ge b
wei ter</w>
ba d</w>
Un ter
we e
wa t
d t</w>
T er
M e
tt y</w>
eh r
b it</w>
le ft</w>
lan ge</w>
il d</w>
ch er</w>
auf en</w>
sp re
hea d</w>
Y our</w>
Th eyre</w>
uns ere</w>
sch la
mil y</w>
a ge</w>
diff er
will st</w>
o t</w>
is nt</w>
en ts</w>
dr in
tal king</w>
h n
re al</w>
par t</w>
com p
S ar
M al</w>
w el
stor y</w>
na ch
mus st</w>
lich e</w>
c ent</w>
ple ase</w>
k lar</w>
ge w
s es</w>
L o
some one</w>
s ing</w>
g in
P le
Na ch
ne t</w>
F eli
sto p</w>
mem ber</w>
N a</w>
w hats</w>
u se</w>
an ks</w>
B ar
f ound</w>
viel leicht</w>
el se</w>
D id</w>
y eah</w>
soll ten</w>
or d</w>
ol le</w>
fa mily</w>
wi ch
pa ar</w>
oh ne</w>
ell o</w>
d ung</w>
c y</w>
as k</w>
R ich
on es</w>
h en</w>
er n
ber t</w>
an t
a go</w>
G i
C or
A h
sa w</w>
h ell</w>
Fran c
m y
f er</w>
le ts</w>
S o
ür lich</w>
j ob</w>
T ut</w>
wh ole</w>
g ri
B itte</w>
p lan
fa st</w>
mo ve</w>
j u
h u
er zä
ei gen
den ke</w>
T e
F u
wom an</w>
st an
ma te</w>
hr t</w>
G u
N un</w>
n ein</w>
mö chte</w>
geh ört</w>
mm t</w>
m ust</w>
ge d</w>
fu cking</w>
er sten</w>
US A</w>
lea ve</w>
er te</w>
call ed</w>
P rä
zurü ck
per son</w>
h e
R ight</w>
B ab
jem and</w>
d au
ar k
all s</w>
al d</w>
K rie
F r
En tsch
ta in</w>
k rie
ge st
j o
g ie</w>
al t</w>
S am</w>
2 0</w>
stimm t</w>
ge gen</w>
Ar beit</w>
under stand</w>
g ung</w>
em p
eiß e</w>
Bea st
t on
stell en</w>
da von</w>
be sch
Wh o</w>
Ma ybe</w>
Ja p
H ö
th le
ea m</w>
dre i</w>
c are</w>
Yor k</w>
K eine</w>
Ge t</w>
ga b</w>
H e
secon d</w>
ro w</w>
k ä
get an</w>
L os</w>
An ne</w>
tor s</w>
ma ybe</w>
R u
Po int</w>
d ort</w>
T ra
S hi
w ed</w>
ta l</w>
mon ey</w>
l ess</w>
e v
ch ing</w>
1 9
n y</w>
ma ster</w>
lich en</w>
k new</w>
har d</w>
b ur
Di ese</w>
Fil m</w>
ti mes</w>
l ine</w>
ich te</w>
a h</w>
B u
v om</w>
sch ein
lie be</w>
ger n</w>
d ro
We g</w>
wa it</w>
star t</w>
ru n</w>
re member</w>
ol o
m ed</w>
T it
D in
i es</w>
ch ter</w>
J o
G o</w>
g lich</w>
al ready</w>
W here</w>
Au f</w>
ü ck
your self</w>
fa hren</w>
se t</w>
r aus</w>
ne u
il s</w>
ck ed</w>
U m</w>
H ause</w>
Da d</w>
B l
sch ön</w>
n or
M oment</w>
Ha st</w>
G eld</w>
t zt</w>
n äch
c o</w>
and ere</w>
Sor ry</w>
ma king</w>
i se</w>
d on</w>
R ei
Pro blem</w>
wor king</w>
r a</w>
i ge</w>
au t</w>
Wi eso</w>
Li ke</w>
p unk
mil ie</w>
konn te</w>
k o
Punk te</w>
wus ste</w>
wei t</w>
f r
bei m</w>
R us
K o
un i
th ers</w>
om e
lo w</w>
gen au</w>
g te</w>
Ple ase</w>
H ello</w>
u g</w>
sch ei
dur ch
c ted</w>
Fa milie</w>
uns er</w>
na h
ih nen</w>
e cht</w>
ca r</w>
M om</w>
you ve</w>
to day</w>
h ouse</w>
fa ce</w>
an ge
Ja hren</w>
schaff en</w>
in gs</w>
da für</w>
M it
F or</w>
Beast master</w>
ä d
zusamm en</w>
st s</w>
qu esti
k on
t ook</w>
hal b</w>
happ y</w>
ber ei
N ur</w>
wh ile</w>
su ch</w>
po int</w>
ll t</w>
l or
en d
den ken</w>
b us
W el
Ja hre</w>
Di es
re cht</w>
kä mp
ha tten</w>
Th ru
In ter
Ab end</w>
par t
ma kes</w>
ep t</w>
M an
w hi
sta y</w>
Wa it</w>
Sch u
Q u
3 0</w>
o c
l ing</w>
h ed</w>
differ ent</w>
M it</w>
se en</w>
m ind</w>
it ed</w>
brau cht</w>
En er
wei ßt</w>
sa m</w>
ri st
4 0</w>
ti l</w>
t om
si g
n en
da ys</w>
brau che</w>
sa ying</w>
h ö
Sa che</w>
Ü ber
star ted</w>
ni ce</w>
go es</w>
fa ther</w>
c an
T o</w>
with out</w>
j a
s einen</w>
pp ed</w>
k ur
ha ving</w>
f l
ck er</w>
b in
J un
th er
p ic
gen ug</w>
et t</w>
E very
Ba ck
st em</w>
der s</w>
F in
sch t</w>
ha b</w>
de ci
S ie
ti ge</w>
n is
my self</w>
ff e
c ri
brau chen</w>
tur n</w>
pro blem</w>
gef ä
des ig
ci al</w>
W or
N at
H il
ou t
k ti
h on
war um</w>
um p</w>
P i
Mu tter</w>
shi p</w>
s eit</w>
r s</w>
pa ge</w>
me et</w>
bab y</w>
W ill
I de
H i</w>
E l
w ood</w>
w o
po li
lan g</w>
O f</w>
p ing</w>
mi li
Ra ch
F o
z wei
un k</w>
ti es</w>
ti c</w>
scha ft</w>
gu ess</w>
f t
com es</w>
W ho
R i
Po li
Le t</w>
K op
H el
v ent</w>
tion en</w>
ta king</w>
sa h</w>
o k</w>
ma chst</w>
h eißt</w>
J u
war d</w>
et t
dar über</w>
c li
an er</w>
Thru ster</w>
D en
thin king</w>
stu ff</w>
steh e</w>
st än
p or
gir l</w>
fa r</w>
d nung</w>
ch t
c er
an s
S y
O ne</w>
G eh
B ri
ti gen</w>
i c</w>
fri ends</w>
Bea st</w>
m ei
for ma
ch ar
b or
ab en</w>
z er
per fe
li ve</w>
k ill
glei ch</w>
c ool</w>
K an
wei se</w>
tt er
rich tig</w>
le ben</w>
di en
Z ark
uns er
spre chen</w>
S tu
r o</w>
p en
fe w</w>
e f</w>
ch ed</w>
blei ben</w>
be t
H aus</w>
wur den</w>
tion al</w>
m er</w>
i can</w>
ho pe</w>
hear d</w>
g ar
e a</w>
al ten</w>
W is
M iss</w>
A s</w>
y ear</w>
s se</w>
d ra
En de</w>
tz e</w>
schn ell</w>
ch a
w on
sch ool</w>
in g
gan ze</w>
ch o
y es</w>
om men</w>
nee ds</w>
gl ich
an g</w>
H in
Fü r</w>
E R
C ha
y et</w>
un til</w>
ter n</w>
ma y</w>
ei ten</w>
O der</w>
H ere</w>
st ru
r el
ea ch</w>
e as
d ru
soll en</w>
i re</w>
i a</w>
gh ter</w>
f all</w>
every one</w>
ell ing</w>
V ol
Or dnung</w>
wir st</w>
wan ts</w>
w ouldnt</w>
st ri
sch le
ou th</w>
n s</w>
happ en</w>
ge ts</w>
f al
S ome
S ich
po ssi
i eren</w>
h än
fü n
c ed</w>
Rach el</w>
bu il
M äd
y o
un der</w>
n u
ma che</w>
lie gt</w>
h ur
gu te</w>
c ouldnt</w>
br ing</w>
S tra
Na cht</w>
pp e</w>
n st</w>
eh st</w>
di g</w>
Back page</w>
pre tty</w>
n ar
ge schafft</w>
en e</w>
en de</w>
bei de</w>
any one</w>
T y
K ind</w>
Bab y</w>
t eil
c tor</w>
c ou
b a</w>
E u
ton ight</w>
s er</w>
s ent</w>
re m</w>
l ti
fil m</w>
chan ge</w>
bab ly</w>
ann a</w>
Tit us</w>
G ri
Fr auen</w>
Col t</w>
zi ehen</w>
z ing</w>
sa ys</w>
i er
Gesch ichte</w>
th ough</w>
se l</w>
l er
ea l</w>
de ad</w>
K ir
t y
st ü
s le
h le</w>
fu ck</w>
f ten</w>
f oo
er ste</w>
de l</w>
da m
as ili
al le
ge he</w>
c ase</w>
ber eit</w>
B ei
re as
hol en</w>
bra cht</w>
F all</w>
Be i</w>
Amer ican</w>
ver k
imp ort
Kin der</w>
v en
si e
le ar
ha vent</w>
dar an</w>
da bei</w>
Wei l</w>
Pla tz</w>
w anna</w>
o sed</w>
kom me</w>
gro ß
et er</w>
di a</w>
D u
Ar t</w>
t in
n ess</w>
j ump</w>
wi schen</w>
w ea
sp ea
or s</w>
ter s</w>
stell t</w>
sp a
ki ds</w>
e i</w>
ch s</w>
W ir
Fre und</w>
C om
wa ter</w>
t el
pu bli
me ans</w>
ma g</w>
l äu
for t</w>
d einen</w>
Th anks</w>
Ter ry</w>
O r</w>
B es
wei ter
mor ning</w>
iem and</w>
g le</w>
c ess</w>
be vor</w>
Sch ul
S ohn</w>
sch rei
po wer</w>
ous ly</w>
m as</w>
lo st</w>
li g</w>
ga ve</w>
O n
Mar i
K u
gen ommen</w>
de u
da zu</w>
Hil fe</w>
F i
00 0</w>
z eu
un ds</w>
th s</w>
seh e</w>
l s</w>
geh ts</w>
gef unden</w>
f rü
es sen</w>
Sar ah</w>
Ja hr</w>
wür den</w>
r ein</w>
glau ben</w>
an nt</w>
M ich
K ar
D ur
ö ff
re ali
p p</w>
k or
an e</w>
L in
st es</w>
or y</w>
k ü
h or
gh ts</w>
fi ve</w>
en den</w>
at ing</w>
Mäd chen</w>
supp osed</w>
sin ce</w>
n um
lo se</w>
ex c
be kommen</w>
b re
T ro
L ass</w>
K er
H u
w in</w>
vi er</w>
v ö
t oll</w>
ph one</w>
on ce</w>
import ant</w>
hr er</w>
ha bt</w>
g one</w>
et ing</w>
em s</w>
Sch la
G lü
Do ch</w>
Br asili
zei gen</w>
f un
f te</w>
b s</w>
ass er</w>
Gen au</w>
Feli pe</w>
we ve</w>
w ri
tt est</w>
se i</w>
letz te</w>
i ma
fu n</w>
c ke</w>
au ßen</w>
P rin
M än
B ru
An gst</w>
Ah nung</w>
s einem</w>
r ung</w>
le ge</w>
könn ten</w>
jem an
is h</w>
in n
im my</w>
for m</w>
ander s</w>
W al
I N
G ar
Din ge</w>
st re
k te</w>
f eh
di es</w>
a m
W er
S ü
K im</w>
Ch rist
th ank</w>
se cre
ra c
ha te
g s
as sen</w>
arbei ten</w>
pla y</w>
k ill</w>
in ess</w>
b as
You ve</w>
W eißt</w>
V il
N eu
ch es</w>
Sta dt</w>
Pre sident</w>
P ri
L ö
B la
s einer</w>
S ei
M ir</w>
1 2</w>
ä l
wa hr</w>
loo ks</w>
letz ten</w>
glau b
ge win
di s
blo od</w>
T ri
G al
Bra zi
ö ß
vor bei</w>
sch wer</w>
o ver
mus ste</w>
ge sp
der t</w>
U lti
P e
you ll</w>
y er</w>
v oll
v a
u tes</w>
sch er</w>
qui te</w>
our s</w>
gh s</w>
f ter</w>
ein zi
de st
da mmt</w>
b ed</w>
au l
We ve</w>
T re
J on
Amer ik
z ed</w>
wor d</w>
we g
ti g
su chen</w>
pr om
li ght</w>
in al</w>
ge l</w>
f lo
d einem</w>
c al</w>
be h
ac tly</w>
W ow</w>
P h
00 00</w>
z o
ro e</w>
pre sident</w>
p le</w>
ma tter</w>
m oment</w>
ge ssen</w>
fün f</w>
er ung</w>
ein s</w>
wat ch</w>
par ty</w>
in side</w>
c ts</w>
a ten</w>
Sch eiße</w>
wa ch
sch ie
ri ed</w>
min utes</w>
m el
l en</w>
l ed</w>
k eiten</w>
h ne</w>
el ing</w>
dar f</w>
com ple
clo se</w>
Mon roe</w>
For d</w>
C la
wom en</w>
t ö
st ed</w>
ih ren</w>
ha up
f our</w>
ein mal</w>
ant wor
al one</w>
Se e</w>
Rus si
M ö
Lei f</w>
Gre at</w>
C har
un t</w>
pro bably</w>
h and</w>
ge bracht</w>
di rec
au ti
an ti
al most</w>
Par k</w>
P u
C H
ver li
ig er</w>
hate ver</w>
ei m
den en</w>
de al</w>
d d
ar s</w>
Ulti mate</w>
Da vi
war st</w>
tr ue</w>
sp on
re st</w>
ra tor</w>
pl an</w>
o ben</w>
it ing</w>
for t
Ca pr
wi fe</w>
war ten</w>
t a</w>
h old</w>
bla ck</w>
beh ind</w>
Zark on</w>
S in
Nat ürlich</w>
Ide e</w>
2 0
ä ter</w>
wen ig</w>
rea d</w>
per i
me t</w>
m ing</w>
hr end</w>
competi tors</w>
all ein</w>
Sp iel
S ir</w>
C u
y e</w>
te l</w>
la te</w>
gen d</w>
den ti
c e
at or</w>
Shi ro</w>
S pa
Min uten</w>
Ener gy</w>
in ing</w>
h t</w>
g a</w>
att a
K immy</w>
I r
we en</w>
w a</w>
so on</w>
se x</w>
or d
off ice</w>
o h</w>
kno ws</w>
k un
T eil</w>
z y</w>
z wischen</w>
z eh
ili ty</w>
han ds</w>
e gal</w>
bus iness</w>
b ald</w>
at es</w>
Fre unde</w>
Fre und
op s</w>
do or</w>
da te</w>
c ro
ar t</w>
Na men</w>
Kan di
K en</w>
v ie
r t</w>
na t
n un</w>
m ine</w>
kur z</w>
in st</w>
ill s</w>
ge s
d einer</w>
ca p
as ked</w>
W oh
Un der
Hö r</w>
wor ry</w>
ver stehe</w>
po si
nar rator</w>
hal f</w>
gan g</w>
fi ght</w>
dr außen</w>
ch mal</w>
ch ance</w>
P hi
st on</w>
sei d</w>
oll en</w>
las se</w>
k id</w>
hin ter</w>
gr öß
O p
K i
H is</w>
G ro
w en</w>
te te</w>
st r
or row</w>
mö glich</w>
mu si
je ct</w>
ex pe
er le
ele f
da ten</w>
c lu
Wa hr
T r
R oo
G an
Entsch uldi
ß er
unk tion
t ou
sp i
ne ue</w>
ken nen</w>
il y</w>
f alls</w>
d anke</w>
aga inst</w>
O l
No ch</w>
Jap an</w>
Ha ve</w>
wich tig</w>
oul d
mo v
lea st</w>
er sch
ell en</w>
Sie h</w>
L and</w>
Kop f</w>
A t</w>
versu cht</w>
si ve</w>
s au
ould ve</w>
l ar
je den</w>
fer tig</w>
di sa
bo y</w>
bet ween</w>
beg in
K ei
B et
A n</w>
y ed</w>
vi ce</w>
tre ffen</w>
to t</w>
ter i
si on
pp en</w>
fi g
f es
ei ther</w>
dar auf</w>
c ity</w>
To chter</w>
P l
F ac
D eine</w>
Capr a</w>
A ch</w>
su b
reas on</w>
her aus
gan zen</w>
com m
a g
E R</w>
sy stem</w>
r ein
pp ing</w>
m ur
deu tet</w>
ch en
bro ther</w>
an der</w>
Mex ik
E N</w>
Cor an</w>
A h</w>
ör en</w>
neh me</w>
k st</w>
W as
Na ch</w>
L ord</w>
He ey
G ra
Bl ut</w>
Amer ic
Al le</w>
sch li
mp le</w>
fra gen</w>
di o</w>
W in
Heey ong</w>
H aben</w>
F lu
D eu
5 0</w>
wi er
min i
fr ont</w>
dau ghter</w>
b oo
b and</w>
a thle
V on</w>
Mor gen</w>
B ie
questi on</w>
mo ving</w>
mo ther</w>
läu ft</w>
l on
l ass</w>
k la
er ing</w>
coun try</w>
b is
W ä
Krie g</w>
Kei th</w>
J ohn</w>
Gr und</w>
won der
th ey
sch ü
possi ble</w>
j e</w>
f el</w>
ch ni
a w
W y
W asser</w>
W ar</w>
Sa g</w>
S tr
H än
H ea
H ar
H an
D ing</w>
st ac
si eren</w>
n ie
k ra
h it</w>
eas y</w>
a k
Ker l</w>
Bru der</w>
B ist</w>
wi sh</w>
s it</w>
re spon
mor gen</w>
li sten</w>
happen ing</w>
f elt</w>
en ing</w>
em ent</w>
d dy</w>
cu se</w>
cle ar</w>
W ett
S ha
Re ally</w>
D ou
zi eh
tr au
st ren
r er</w>
ho ffe</w>
hi gh</w>
gro ße</w>
g rei
f st</w>
ac t</w>
S top</w>
N u
H ol
H at</w>
Ge fü
E N
whi te</w>
wee k</w>
kl in
ken ne</w>
it ät</w>
inter est
en n
em o
e ts</w>
arbei tet</w>
Män ner</w>
Mich a
K ann</w>
J er
Ch ance</w>
unser er</w>
to s</w>
th y</w>
t eam</w>
se x
i gen</w>
hi er
Sch ön</w>
Sch at
Freund in</w>
Ex tra
z iem
w ann</w>
on d</w>
ob stac
m as
le gen</w>
kun ft</w>
f än
er rei
drin k</w>
M at
L ance</w>
H al
Gen er
sch uldi
in ner
h y
gl ück
ff t</w>
f la
f and</w>
de fin
d rea
ch il
auti ful</w>
a p
Lie be</w>
Franc is
Fra ge</w>
pa st</w>
it u
hear t</w>
f ood</w>
f li
ell s</w>
ch u
S ol
S how</w>
O ur</w>
J es
Davi d</w>
Car los</w>
1 5</w>
war tet</w>
w under
t end</w>
t au
re kt</w>
ran k</w>
la ter</w>
i ous</w>
fre e</w>
b all</w>
at ely</w>
Will st</w>
U m
U hr</w>
L on
Hin der
Cla ire</w>
t elling</w>
sch en
s ci
et wa</w>
c tive</w>
be deutet</w>
aus ge
a st</w>
Wei h
V i
Sch on</w>
S el
N i
D ank</w>
C hi
Brazi l</w>
A ir</w>
you d</w>
v oll</w>
ul t</w>
tr on</w>
st ei
sp rin
sp ra
sen se</w>
rel a
r un
mon ths</w>
mer a</w>
je der</w>
ent ly</w>
dar um</w>
Sp rung</w>
S outh</w>
Ma ch</w>
tro l</w>
t ely</w>
set zen</w>
s li
re ck
pro du
off en
k el</w>
in st
h ours</w>
f unktion
any more</w>
Prä sident</w>
v el
t ch</w>
t ary</w>
so gar</w>
sch war
op en</w>
num ber</w>
n a</w>
ma chte</w>
m es
lo ck</w>
hr ung</w>
h il
e e</w>
ck y</w>
a gre
Th ese</w>
Ta ke</w>
T elef
F ro
Cu th
A m</w>
ver n
stan den</w>
nis se</w>
i on</w>
ger ne</w>
fe eling</w>
er inn
di ed</w>
Pi dge</w>
N or
Jon a
Francis co</w>
Dies er</w>
Christ mas</w>
v is
us h</w>
un ity</w>
to wn</w>
st rong</w>
st and
pro te
pic ture</w>
part ment</w>
o pp
m me</w>
la d</w>
ic o</w>
f en
ex p
et te</w>
da cht</w>
d ür
all en
al en</w>
T u
T ru
An y
y si
ver rü
tri ed</w>
sm all</w>
p rä
m st</w>
h un
gen er
gel n</w>
gef allen</w>
forma tion</w>
car e
ac c
S en
Kir a</w>
H y
Fu ck</w>
Br un
Al ba</w>
ziem lich</w>
wal k</w>
tom orrow</w>
pa y</w>
p ie
ou ble</w>
oll y
l ant</w>
ho ch</w>
ha te</w>
ex actly</w>
d ding</w>
T ur
Re gi
F eh
B lu
B is</w>
tru th</w>
tra gen</w>
ta tion</w>
sur pri
sch lie
p en</w>
ne ws</w>
musi c</w>
in ed</w>
ga me</w>
e ing</w>
c r
brea k</w>
Wy ler</w>
Pro ble
K ü
Jona than</w>
Au to</w>
1 0</w>
un be
ti gt</w>
st et</w>
ou p</w>
h us
gu e</w>
f rei
en a</w>
cra zy</w>
c ur
ar m</w>
Wo che</w>
Micha el</w>
A fter</w>
zeh n</w>
w ear</w>
un ten</w>
tr ä
to tal</w>
sel ves</w>
ri ble</w>
op er
nat ürlich</w>
m self</w>
hi mself</w>
fü hrt</w>
fin de</w>
f le
e at</w>
de a
d lich</w>
Jes us</w>
H unk</w>
Franc is</w>
Fac ep
B ür
woll ten</w>
ta ge</w>
t ä
son st</w>
näch sten</w>
mp f</w>
l o</w>
hä tten</w>
fan gen</w>
dr ü
con trol</w>
comp any</w>
be autiful</w>
Vil ma</w>
K en
zei ch
si den
sch ä
s nt</w>
out side</w>
lä sst</w>
ge kommen</w>
g ine</w>
fu ture</w>
ab sol
Wa hl</w>
Sp inal</w>
Schat z</w>
Sch we
J ob</w>
Ges icht</w>
Facep lant</w>
E ssen</w>
D enn</w>
Brasili en</w>
An t
Al l
yo ung</w>
wer t</w>
ver lor
tr in
st ers</w>
soll test</w>
si ehst</w>
sho t</w>
r icht</w>
r d</w>
olo gi
la ge</w>
i en</w>
h ole</w>
fin det</w>
fe et</w>
f ur
ex peri
di g
c a</w>
b ook</w>
b an
Ra v
Mex ico</w>
H olly
E i
D et
y mp
wor th</w>
uns eren</w>
ra id</w>
li on</w>
j i</w>
hur t</w>
f o
er kl
ein ander</w>
cre di
c ut</w>
c ing</w>
be come</w>
b ir
ac ro
a ma
War te</w>
V or</w>
Li dia</w>
K ein</w>
Jun gs</w>
D re
D r</w>
B ro
tr ust</w>
t an
sa m
p ed</w>
ne y</w>
lie gen</w>
l ö
kill ed</w>
haup t</w>
ger s</w>
fa ct</w>
f ir
e f
au ft</w>
W all</w>
Vol tron</w>
Sch ei
S ure</w>
z en
wi ck
v ens</w>
v e
ti v</w>
spa ce</w>
sp o
s we
ro chen</w>
r aus
o d
gen t
ge geben</w>
br ought</w>
be sten</w>
a ir</w>
Wi th</w>
St unden</w>
Na me</w>
Geh eim
verlor en</w>
st ol
sp äter</w>
p t</w>
n ä
mov ie</w>
mi sta
mein st</w>
k ar
hu man</w>
hi g</w>
fu l
f allen</w>
cou ple</w>
con tin
che ck</w>
au lt</w>
T ell</w>
Poli z
M illi
M ein
M c
E d</w>
z eit</w>
ver gessen</w>
un ch</w>
tre ten</w>
t was</w>
si r</w>
re spe
ra l</w>
lich keit</w>
ell er</w>
dr an</w>
den kt</w>
chu ck
can not</w>
Spa ß</w>
Sa chen</w>
S ind</w>
O n</w>
Ma g</w>
Lon don</w>
G lau
D ass</w>
A D
ü r</w>
w on</w>
versu chen</w>
sa fe</w>
pas st</w>
nor mal</w>
lan g
jeman den</w>
is a</w>
in a</w>
hl te</w>
hi gh
gel es</w>
ge st</w>
gan gen</w>
et z
ep ing</w>
ea d</w>
competi tion</w>
bei den</w>
be za
Wahr heit</w>
Pe ople</w>
Mar c
Glü ck</w>
G a
A d
ü te</w>
st ing</w>
s ü
b om
Sich er
Sch w
H i
Gal ra</w>
Entsch ei
wor ks</w>
son dern</w>
rie f</w>
me eting</w>
l ie</w>
glaub lich</w>
fin ally</w>
f lu
be l</w>
at ch</w>
an ne</w>
T i
S her
Men sch</w>
L ab
H off
E le
A li
ta ken</w>
spea k</w>
se ems</w>
se ar
lie ben</w>
l lig</w>
l le</w>
happ ens</w>
eiß en</w>
dr in</w>
c le</w>
b it
ar ent</w>
an gen</w>
an a</w>
alle m</w>
al ong</w>
T eam</w>
K ra
K lin
B i
A N
tö ten</w>
ta kes</w>
t in</w>
se em</w>
on en</w>
o ft</w>
h mm</w>
gewin nen</w>
fig ure</w>
eli min
da d</w>
con ne
Proble me</w>
Ph illi
zi ert</w>
tr auen</w>
sti g</w>
so fort</w>
rü n
punk t</w>
per son
loo ked</w>
ha us</w>
h ung</w>
fe st</w>
con si
chil dr
ch ild</w>
b st
an ge</w>
al ity</w>
W hi
T an
S er
S T
Roo ster</w>
P lan
O K</w>
N äch
I I</w>
G ute</w>
ti ger</w>
schein t</w>
punk te</w>
nee ded</w>
n ö
n imm
le tt
fä llt</w>
den ce</w>
buil ding</w>
an g
F irst</w>
y an</w>
wa hr
si te</w>
s ort</w>
kl eine</w>
gel e
fu ll</w>
erzä hlt</w>
enti re</w>
d m
d ly</w>
cu ri
acro ss</w>
Zu kunft</w>
You ll</w>
K e
De v</w>
wh os</w>
wei rd</w>
us ing</w>
t able</w>
sag st</w>
or e</w>
men ts</w>
lo ssen</w>
lich er</w>
le vel</w>
it al</w>
i te</w>
gre ss</w>
ent lich</w>
di rekt</w>
con ta
W ill</w>
N ichts</w>
H and
Dou g</w>
A c
än dern</w>
wa iting</w>
tur ned</w>
spiel en</w>
sp iel</w>
p ho
or i
kämp fen</w>
je kt</w>
ih rer</w>
gh t
fü hren</w>
fun ny</w>
eigen tlich</w>
di sc
d um
competi tor</w>
cli m
b al
ali ve</w>
W ort</w>
V in
Re g
P at</w>
M rs</w>
Ja mes</w>
B un
zusamm en
wä r
stän dig</w>
pla ying</w>
ou d</w>
me di
lie ß</w>
i ff</w>
gi ving</w>
ge k
dr auf</w>
do g</w>
blei bt</w>
al te</w>
af raid</w>
Under wood</w>
Sü d
S oll</w>
Ro ber
L isa</w>
K re
D en</w>
D ein</w>
A k
über haupt</w>
wä hrend</w>
w ü
ti sch</w>
t ere</w>
su cht</w>
sch wier
k i</w>
ge dacht</w>
f y</w>
el e</w>
d eli
co ver
as king</w>
Sch ri
S on
z war</w>
w hatever</w>
v ir
su per</w>
sp ät</w>
s end</w>
ra ten</w>
ol u
in formation</w>
gir ls</w>
ex t</w>
co ver</w>
c ti
ber s</w>
Rav n</w>
O R
Ma y</w>
Ma x</w>
K lar</w>
H ouse</w>
H and</w>
Bie st</w>
Au gen</w>
wä ren</w>
tu e</w>
st ens</w>
sch ick
pre ss
or din
lo wed</w>
lie ber</w>
l än
k a</w>
ir s</w>
h um
g li
ful ly</w>
fi re</w>
ent schei
dea th</w>
childr en</w>
ca tion</w>
c um
bo t</w>
ander es</w>
Z u</w>
Y u
Ver dammt</w>
M us
K ör
Gro ß
Do es</w>
Des ig
C ause</w>
B ü
A le
w all</w>
ol lar</w>
m eines</w>
ill a</w>
hä lt</w>
gefä hr
ge mein
f oc
f as
brin gt</w>
ama zing</w>
Z um</w>
U h
Schul d</w>
P en
Ol ymp
Ma cht</w>
Da mit</w>
B el
st ä
poli ce</w>
p ul
m om
it e
ho ch
gu ter</w>
el ine</w>
di gen</w>
desig n</w>
dd le</w>
bo ard</w>
app ro
Ste vens</w>
Sei te</w>
Rich ard</w>
Poliz ei</w>
Mexik o</w>
M ü
M ann
Hän de</w>
Deu tsch
ä ren</w>
zo gen</w>
wi g</w>
verrü ckt</w>
sc ar
run ning</w>
qu e</w>
no lo
mo m</w>
ih rem</w>
fal sch</w>
e di
disa pp
ch nolo
b ig
as h</w>
ans wer</w>
Zei t
U N
Ty p</w>
T ür</w>
Se k
Par t
Kor e
G eht</w>
Cuth bert</w>
C ra
wor ked</w>
tr ouble</w>
st at
sh ort</w>
sch es</w>
p es</w>
off er</w>
le gal</w>
i st
er in</w>
U F
Schu le</w>
S ehr</w>
S co
Or t</w>
No thing</w>
Kor ea</w>
K ann
H on
Co il</w>
1 00</w>
z us
z ent
wat ching</w>
ut zt</w>
t ust</w>
st au
spe ci
sa tion</w>
par ents</w>
om ach</w>
mis s</w>
lea ving</w>
la gen</w>
l en
it ely</w>
h ey</w>
gri ff</w>
glück lich</w>
every body</w>
eu er</w>
er ten</w>
e z</w>
b ie
Un ited</w>
T en
Kön nen</w>
Kandi daten</w>
Gefü hl</w>
Extra punkte</w>
Ab by</w>
zu g</w>
z er</w>
ver stehen</w>
u al</w>
tra g</w>
ti eren</w>
tel li
secre t</w>
s il
publi c</w>
p ort</w>
li ving</w>
kom m</w>
i denti
gro und</w>
en nen</w>
ein ige</w>
con c
cho ice</w>
V ir
Schwe ster</w>
P in
Ko ti
H alt</w>
Ex cuse</w>
Bla ck</w>
t ar
si ster</w>
se eing</w>
schein lich</w>
s wi
n ei
h uh</w>
h our</w>
gew esen</w>
ge stellt</w>
be ste</w>
b auen</w>
Who a</w>
U r
T eu
Süd kor
S hel
L icht</w>
Gi ve</w>
Feh ler</w>
F ri
F ir
En t
B lei
z ep
w ün
w oo
sle ep</w>
schla gen</w>
perfe ct</w>
kü mm
klin gt</w>
gr oup</w>
funktion iert</w>
ff s</w>
fa ir</w>
end lich</w>
e ben</w>
di ent</w>
bu y</w>
b ing</w>
Sta tes</w>
S eine</w>
O ff
Li sten</w>
Kann st</w>
Gan z</w>
F la
Á n
wor den</w>
sa ve</w>
min ute</w>
k einer</w>
k aum</w>
einzi ge</w>
ear ly</w>
diff ic
Wh ich</w>
Vin cent</w>
U S</w>
Sp iel</w>
Pl an</w>
P aul
N iemand</w>
Mu si
Je der</w>
I hrer</w>
El tern</w>
än dert</w>
Án geles</w>
zer st
z in
vo ice</w>
ti red</w>
spe cial</w>
sch w
s al
r unter</w>
pie ce</w>
p ur
hus band</w>
gefä llt</w>
for get</w>
fin al</w>
ch ite
c al
be at</w>
H ei
Feli x</w>
your s</w>
ur en</w>
u fen</w>
th ir
schle cht</w>
sch ung</w>
rea dm
pi ck</w>
p f
n iemand</w>
kl einen</w>
ey es</w>
d ent
c ally</w>
berei ts</w>
b ly</w>
auf ge
W ür
W it
Se x</w>
Sch war
P al
L ü
G üte</w>
Da m
Ca p
w l</w>
v an
tr ei
sti c</w>
ste ckt</w>
sta g</w>
si x</w>
si tzen</w>
pp t</w>
p an
lo ved</w>
ler nen</w>
k ey</w>
is hed</w>
h ing</w>
gro ßen</w>
g ton</w>
g th</w>
g lad</w>
g an</w>
fa vor
e vi
de te</w>
dan ken</w>
Z eu
Wir klich</w>
T om</w>
T od</w>
O b
For ce</w>
F ar
Every thing</w>
E li
B ill</w>
ß er</w>
zei gt</w>
z es</w>
ut ely</w>
tr an
st ern</w>
r ing</w>
or der</w>
off i
näch ste</w>
l ung</w>
inv ol
gu ten</w>
gu n</w>
go vern
g as
f it</w>
cle an</w>
chuck les</w>
c er</w>
be sor
be son
a head</w>
Z a
Sor gen</w>
Nu mmer</w>
Mi tt
Lie b
L oo
L I
Hel ena</w>
G ehen</w>
Dies es</w>
Di ck</w>
B ar</w>
win den</w>
w n
tic s</w>
st in
si tu
se chs</w>
sch ön
rich ten</w>
onn e</w>
m p</w>
lich es</w>
ima gine</w>
fü r
fi ed</w>
di gt</w>
d ance</w>
c ul
c ess
c en
b te</w>
b ru
Wis sen</w>
Th ey
S us
M ist</w>
K r
Hu ston</w>
Holly wood</w>
Hea ther</w>
H eute</w>
H au
up id</w>
tr olle</w>
to gra
t ei
stor e</w>
sp ot</w>
ser ious</w>
rie ben</w>
p ra
neu en</w>
l uss</w>
hä ttest</w>
gew ö
g n
dam als</w>
b on
b lu
Teu fel</w>
T wo</w>
Sor ge</w>
S ehen</w>
Rober to</w>
H ell</w>
D y
wie der
wer ent</w>
wei sen</w>
t at</w>
st ep</w>
spiel t</w>
sch i
questi ons</w>
p rü
p a</w>
na chten</w>
mei sten</w>
lo y
in es</w>
fra ge</w>
f ault</w>
eh men</w>
din ner</w>
den kst</w>
comp li
ch tet</w>
c ting</w>
all er</w>
W ould</w>
T on
S il
In forma
H er</w>
Gesch ä
Ger many</w>
Ge or
Fra gen</w>
E d
B il
Ar my</w>
wh e
tra ff
th anks</w>
t ie</w>
sin gle</w>
s a</w>
rie b</w>
pla in</w>
or en</w>
mista ke</w>
lü s
la dy</w>
ken nt</w>
k tion</w>
irgend wie</w>
har t</w>
gi ven</w>
gest ern</w>
f ar
erzä hlen</w>
e ff
dür fen</w>
ber ü
be ein
ar tig</w>
ar i
al ität</w>
V al
Sch au</w>
L as
H old</w>
Ein en</w>
Amerik aner</w>
war te</w>
ur n</w>
tr a</w>
th in</w>
te mp
schrei ben</w>
r ant</w>
nah men</w>
ma gi
lo ss</w>
ka men</w>
in s
ho t</w>
gen heit</w>
fort un
fan g</w>
fa il
en er
diffic ult</w>
ber g</w>
a ff
Weih nachten</w>
T ha
St ü
Sh it</w>
Sch n
R ea
Mar k</w>
M m
K at
H mm</w>
D readm
D an
B rü
Americ a</w>
1 6</w>
verli eren</w>
up ca
u ally</w>
tri tt</w>
sur vi
ro te</w>
or gan
obstac le</w>
nimm t</w>
le bt</w>
hi story</w>
gro ß</w>
ger e
geh st</w>
ge wi
defin itely</w>
bo ys</w>
atta ck</w>
Th ose</w>
O oh</w>
M is
Jun ge</w>
J oh
Ge h</w>
E ven</w>
Dar um</w>
D ollar</w>
B al
wer s</w>
vi ously</w>
vi de
stand ing</w>
so und</w>
si ghs</w>
sear ch</w>
s ent
ol f</w>
mm en</w>
mis sion</w>
mein te</w>
ma ch
lie bt</w>
is ed</w>
in ten
ha ir</w>
ge sti
foo t</w>
f Ã</w>
em ber</w>
ei ght</w>
dre ss</w>
curi ty</w>
credi ble</w>
bo x</w>
ba ck
W ann</w>
Un s
S ein</w>
Philli p</w>
N ext</w>
Mit ch
Mar illa</w>
Kön ig</w>
G uten</w>
G lei
F rei
F ol
Eu ch</w>
Bür o</w>
ä h
y a</w>
wh o
wea p
wal t</w>
ver s</w>
tur es</w>
star k</w>
s land</w>
r an</w>
pro ble
or ts</w>
mar t</w>
le tzt</w>
han g</w>
experi ence</w>
des sen</w>
ck et</w>
Y o
Was hin
Ver bin
Sar a</w>
S et
P or
M m</w>
Fil me</w>
E ar
D on</w>
B y</w>
B oo
äch lich</w>
zi eren</w>
ti v
ti ce</w>
te chni
ta g</w>
s ung</w>
ru hig</w>
respon si
on to</w>
o l</w>
la tion</w>
krie gen</w>
kom mst</w>
k t
je des</w>
ich ten</w>
glau bt</w>
fü hle</w>
f ell</w>
de ut
c rea
ben s
be kam</w>
b il
Washin gton</w>
Ra y</w>
Per son</w>
L and
Kom mt</w>
F ine</w>
E cht</w>
Deutsch land</w>
C hr
B ul
Au ch</w>
w an</w>
vie w</w>
ver lassen</w>
some body</w>
so unds</w>
ra tion</w>
pu ll</w>
m lich</w>
k o</w>
hi elt</w>
govern ment</w>
ge be</w>
frü h</w>
ffe e</w>
ein ig
dri ve</w>
dam n</w>
d on
bl ing</w>
bis schen</w>
ar ing</w>
T V</w>
Sp ort
S ome</w>
Mm hmm</w>
Me di
Mari o</w>
K ran
I hren</w>
Fran k</w>
F er
B en
B as
Al ter</w>
A R
6 0</w>
wor ds</w>
wel che</w>
wach sen</w>
thin ks</w>
str on
stell ung</w>
si ons</w>
sh ouldnt</w>
s ön
s qu
s la
re ci
qu ick
p li
o thers</w>
ma d</w>
lie f</w>
in di
ge gangen</w>
es pe
d ou
c au
be stimmt</w>
b ility</w>
auf zu
ar ti
Shel don</w>
Regi erung</w>
Mat the
Lin da</w>
K l
Her r</w>
G ei
Er nst</w>
C i
wonder ful</w>
w ouldve</w>
ur a</w>
thir d</w>
stren gth</w>
sch u
s us
re ch
p har
m ent
k ers</w>
ha ps</w>
gu il
g ni
fü hr
ent wick
el a</w>
c la
au er</w>
We st
W at
Viel en</w>
Uns ere</w>
Phi l</w>
M e</w>
K ur
Informa tionen</w>
Go t</w>
G el
E very</w>
Char les</w>
2 5</w>
wi eso</w>
wen iger</w>
v y</w>
tz dem</w>
rä u
reali ze</w>
ph ysi
onn ie</w>
no r</w>
mer as</w>
me ant</w>
man i
lon ger</w>
iem als</w>
g as</w>
for m
ep s</w>
e en</w>
dest ro
cer tain</w>
bre chen</w>
b us</w>
Whi te</w>
Ver y</w>
Sin n</w>
Mitch ell</w>
Matthe w</w>
Lö wen</w>
F ä
Entschei dung</w>
D I
Ch ef</w>
B on
Ar bei
wei tere</w>
us s
unser em</w>
th ro
su c
sta tion</w>
sig n</w>
rei cht</w>
pro ve</w>
op e</w>
nah m</w>
mp el</w>
le y</w>
imp re
ig keiten</w>
ic ally</w>
hör t</w>
gen cy</w>
g or
fes sion
ex a
comple tely</w>
ch test</w>
Ste ven</w>
O N</w>
N ice</w>
Mö glich
Je ff</w>
Inter net</w>
E than</w>
Des cent</w>
Ca mar
C hin
Be ste</w>
A t
ul ti
ter rible</w>
telli gen
ta in
t ea
ste cken</w>
st upid</w>
st ung</w>
some where</w>
sag ten</w>
rela tion
pro gra
opp ort
on line</w>
m ann</w>
kno wn</w>
interest ing</w>
g nis</w>
fü hlt</w>
fe els</w>
favor ite</w>
ey e</w>
eu ert</w>
et er
e ure</w>
do ctor</w>
ar do</w>
Z wei</w>
Ten du</w>
Ta ge</w>
R an
Par ty</w>
Le uten</w>
Geor ge</w>
Dar f</w>
ü bri
zent ri
wor ried</w>
wel come</w>
wee ks</w>
voll er</w>
vide o</w>
situ ation</w>
sin n</w>
sha ll</w>
sch reck
ro pe</w>
rea ch</w>
re turn</w>
re tten</w>
pre par
p rac
na m
n es</w>
man a
li ves</w>
lei der</w>
in k</w>
gesp rochen</w>
g y
fol gen</w>
do w</w>
direc tor</w>
de vel
dan ger
da mm
bra chte</w>
be tra
an u
Z immer</w>
Telef on
Sicher heit</w>
Di ana</w>
Cap tain</w>
B eh
tz lich</w>
tt ers</w>
tre d</w>
si tting</w>
sch te</w>
lu stig</w>
li st</w>
k aufen</w>
is su
hä l
hu ge</w>
hin ter
ge wal
ge gen
ex tra</w>
di tion</w>
d y
co s</w>
Se i</w>
R om
Men ge</w>
K il
Her z</w>
H ä
E I
Camar go</w>
Be zieh
B ett</w>
5 0000</w>
1 7</w>
war ds</w>
un h
tor y</w>
th o
st isch</w>
s etzt</w>
on nen</w>
mis sing</w>
lo ta</w>
lea d</w>
l ab
k annt</w>
ick t</w>
ick ing</w>
gesti ve</w>
g lo
fro h</w>
er ed</w>
e ffe
ck te</w>
be wer
att en
arbei te</w>
a cht</w>
Wo chen</w>
Sich er</w>
Ro bert</w>
Lab or</w>
J ane</w>
Ih rem</w>
H inter
Ge b
F alls</w>
Da ddy</w>
Car lota</w>
C re
A T
ö tet</w>
v il
sy ch
st rei
sc re
ri s
qui ck</w>
pro ject</w>
ner v
m et
li ter
k na
i sche</w>
ha u
gra b</w>
geh ol
er wi
dre ht</w>
deci ded</w>
d el
ar ly</w>
Tra ck</w>
T ex
Sa gen</w>
P f
M ey
M ac
Gre en</w>
Ge bur
F e
Des halb</w>
C al</w>
All ura</w>
wahr scheinlich</w>
ti ert</w>
tal ked</w>
stol z</w>
st är
st elle</w>
sp ür
sich tlich</w>
sch lä
sa g</w>
s ons</w>
relation ship</w>
ra te</w>
r om
prom ise</w>
pro fession
posi tion</w>
plan et</w>
olu tion</w>
n te</w>
lo s
lear n</w>
l aufen</w>
k um
ho sp
hal t</w>
fü rs</w>
exp lo
eigen en</w>
e ten</w>
dien en</w>
cor al</w>
col lege</w>
c as
bor n</w>
blo ß</w>
a c</w>
Yu ji</w>
W ollen</w>
Val ent
St unde</w>
St omach</w>
Si eht</w>
S k
Russi an</w>
R aum</w>
O hne</w>
Gi b</w>
Di gestive</w>
An ge
An fang</w>
1 4</w>
ü b
wus st</w>
ti k</w>
teil en</w>
sta te</w>
si ck</w>
ru fen</w>
r us
pa id</w>
mö gen</w>
mis sed</w>
la w
l ying</w>
ik ani
ic s</w>
her aus</w>
gir l
ga tion</w>
fe st
en th
eh er</w>
ea ter</w>
din gs</w>
der ed</w>
deci sion</w>
con ver
com mitt
clo ck</w>
c ated</w>
bu ild</w>
brea k
auf s</w>
al y
Wo her</w>
Wel t
Schei ß</w>
S pe
S al
Ro b
R ück
Pro jekt</w>
Le on
K einer</w>
J ac
Gesch en
G ru
Flu g
D op
Ch urn</w>
Ö ff
z z
wor se</w>
wal king</w>
trin ken</w>
tou ch</w>
t le</w>
supp ort</w>
sh ed</w>
sc rea
s mo
rei s</w>
pre sent</w>
mur der</w>
mer k
k u
k er
inter es
gesch ickt</w>
geh ei
fre i</w>
for ward</w>
fi eld</w>
f ern</w>
expe ct</w>
et ro
er wartet</w>
do cum
d at</w>
b ul
au ßer
ann es</w>
agre e</w>
a int</w>
Ty pen</w>
Tro y</w>
T om
Sus an</w>
Man chmal</w>
Le e</w>
Kon ta
In di
Hinder nis</w>
H it
F ern
Bri an</w>
Bra dy</w>
Bo den</w>
B li
zeu g</w>
viel en</w>
vi cti
tic al</w>
stra ight</w>
st ür
ss ed</w>
ra ther</w>
r ele
mi ddle</w>
mar ried</w>
le g
ken nen
irgend wo</w>
inv esti
ie t</w>
h n</w>
gu ard</w>
gl and</w>
f el
ex tre
ern st</w>
er nt</w>
ehr lich</w>
der ung</w>
danger ous</w>
dan ach</w>
c old</w>
Z iel</w>
W ie
Ver zei
V ide
S im
Re st</w>
Op fer</w>
On ly</w>
Min i
Kon trolle</w>
J ord
I l
Geb äu
Det e
D ru
D ro
Bei spiel</w>
Ac tually</w>
Ä r
wür dest</w>
ver mis
ver dient</w>
star b</w>
sprin gen</w>
some times</w>
sho es</w>
schla fen</w>
prote ct</w>
pr oud</w>
opport unity</w>
ner vö
nen nen</w>
m al
ki dding</w>
k ten</w>
k in
j ar
hil ft</w>
go od
get ötet</w>
gel t</w>
gel ernt</w>
fi x</w>
er weise</w>
er fahren</w>
ener gy</w>
en jo
b ye</w>
ab o
W ur
U ni
Sti mmt</w>
St elle</w>
Phi li
P ab
M s</w>
M other</w>
M er
Koti te</w>
Jo e</w>
Jer ry</w>
G E
Fir ma</w>
Every one</w>
D rin
A us</w>
wri te</w>
wer fen</w>
ur es</w>
tt et</w>
th day</w>
teri al</w>
ster ben</w>
siden ten</w>
se y</w>
scar ed</w>
r au
pas sen</w>
n et
lear ned</w>
krie gt</w>
k ept</w>
ick ed</w>
i ously</w>
hal te</w>
ge e</w>
f ish</w>
es se</w>
en det</w>
chan ged</w>
c ure</w>
b ens</w>
at s
ab les</w>
Wh eres</w>
Un ser</w>
Uh tred</w>
Sch lüs
S ho
R em
Ku mpel</w>
Kra ft</w>
Kom men</w>
Ka mpf</w>
I C
Ale x</w>
über ra
z e
with in</w>
vö llig</w>
versu che</w>
ver dammt</w>
v ely</w>
v al
tu al</w>
to t
t ough</w>
swe et</w>
su ff
si dent
sc ri
s ste</w>
nö tig</w>
ll en</w>
la b</w>
hon ey</w>
ger ufen</w>
frü her</w>
fa hr
ent fer
en ga
eil en</w>
e ma
du de</w>
di o
ch allen
c ture</w>
be came</w>
b ung</w>
any way</w>
ab ility</w>
a tions</w>
Will kommen</w>
Si ehst</w>
Par k
Kran ken
I tal
Ge phar
Ge fän
B ur
A pp
up er</w>
un ger</w>
star ting</w>
sta ge</w>
st est</w>
sp ort</w>
set z
se curity</w>
sa l</w>
ro r</w>
quick ly</w>
pu tting</w>
pas sieren</w>
p un
p il
om in
nah me</w>
na med</w>
n ett</w>
mil lion</w>
ma d
l and
in er</w>
hun dre
gef angen</w>
fin ished</w>
f et
f em
f all
ent schuldi
en ed</w>
drea m</w>
coun t</w>
c tions</w>
c ir
brau chst</w>
be kommt</w>
aus zu
any body</w>
an zu
all er
ac tion</w>
W AD
Verbin dung</w>
Sta y</w>
Sch o
Sch iff</w>
S uper</w>
Pu bli
Prä sidenten</w>
Ne ver</w>
M ili
Lu ft</w>
Lei ter</w>
La den</w>
L etz
I snt</w>
Han dy</w>
H ü
Gener al</w>
Fro m</w>
E twas</w>
Co ils</w>
C as
Be wer
Au ßer
Ar zt</w>
An y</w>
y st
vi si
steh st</w>
sho e</w>
r aum</w>
qu en
proble ms</w>
pp y</w>
nei gh
nam ens</w>
m ess</w>
konn ten</w>
ken nst</w>
in t
h nt</w>
ge sam
g na
fü hlen</w>
fi c</w>
fan ta
en e
em a</w>
dre hen</w>
do m</w>
d an</w>
call ing</w>
bus y</w>
a den</w>
W om
T isch</w>
T al
Ru he</w>
R ic
Paul a</w>
Milli onen</w>
H en
F en
Di en
A m
w rote</w>
vi li
v an</w>
unter stü
un glaublich</w>
tr ol
tr ans
tion s
sh ut</w>
sel be</w>
scha ft
ran ge</w>
r ich</w>
p ea
nervö s</w>
mü de</w>
ma ch</w>
m outh</w>
ir gen
ho ping</w>
gen au
g gl
des halb</w>
da m</w>
ben utzt</w>
as si
ab ge
a mer
Who s</w>
M um</w>
L ea
Hau p
G oo
G em
F rü
En gland</w>
Dam n</w>
D el
Co si
C oll
C le
Bu ch</w>
8 0</w>
0 s</w>
äh ri
vi es</w>
v is</w>
upca kes</w>
th em
telligen ce</w>
stau rant</w>
sta irs</w>
sho ot</w>
sho o
sc ene</w>
sau er</w>
re ma
po wer
person al</w>
mo ved</w>
li ed</w>
le gt</w>
lau ghs</w>
kon zentri
hi g
ha ttest</w>
girl friend</w>
f ei
en te</w>
ein ge
eh ren</w>
e ch
care ful</w>
besch ä
an fangen</w>
Stü ck</w>
Sta hr</w>
S ex
S CH
R au
P ut</w>
Mey er</w>
Mari anne</w>
Ke ep</w>
Fa mili
Ex c
Ener gie</w>
D ir</w>
Bun gee</w>
B in</w>
An ti
A thle
A fri
wa ke</w>
vor stellen</w>
versch ie
v in
v al</w>
t ät</w>
sch auen</w>
s our
s mart</w>
ri g</w>
re port</w>
re por
o ba
mo vies</w>
mili tary</w>
lu cky</w>
jeman dem</w>
is m</w>
in spi
i schen</w>
hel ping</w>
ha sse</w>
gr un
gh ing</w>
fi gh
des er
de ar</w>
con fi
col le
ci dent</w>
ca mp
c atch</w>
an o</w>
an ing</w>
al ing</w>
Sti mme</w>
Sher lock</w>
Schu he</w>
S to
Part ner</w>
Pab lo</w>
N ä
Mein ung</w>
Marc el</w>
M om
Entschuldi gung</w>
Desig n</w>
Bezieh ung</w>
Be weise</w>
Amerik a</w>
2 00
ö p
zwei te</w>
woo ds</w>
su d
stra te
ssi ve</w>
ss en
spea king</w>
sp ar
sel ben</w>
ru m
rie den</w>
re gi
pri v
par ti
p ass</w>
organ i
o ssen</w>
n al</w>
mes sage</w>
l a</w>
k rank</w>
inter ess
gi g</w>
gele gt</w>
for ever</w>
errei chen</w>
ci ally</w>
ch oo
bir thday</w>
be we
athle tes</w>
Wa ffe</w>
W il
Viel e</w>
Some times</w>
Rem ember</w>
R yan</w>
R olle</w>
Pro z
Per fe
Mac all
M as
La dy</w>
K un
K la
K ing</w>
J em
Er inner
D is
B om
B e</w>
ö tzlich</w>
zwei ten</w>
y ra
yra mi
we ch
ver damm
tro tzdem</w>
tri fft</w>
they ll</w>
th ous
surpri se</w>
su g
sto pped</w>
sta r</w>
sich tig</w>
sel t
sch wer
ru p
pas sed</w>
or ig
n ear</w>
lu g</w>
li ons</w>
k in</w>
je de</w>
hon est</w>
her um</w>
h a</w>
gef ra
ge worden</w>
fin ish</w>
devel op
de m
de fen
ck ets</w>
ci ous</w>
ch st
c ele
bro thers</w>
bo y
ben u
b at</w>
au th
athle te</w>
as ed</w>
ar ds</w>
Wis sen
Schri tt</w>
S ter
S eit</w>
R uss</w>
Mar ga</w>
Lieb lin
Jord an</w>
Ja y</w>
H ur
H imm
Gebäu de</w>
F B
Da vis</w>
C am</w>
ß lich</w>
y n
won der</w>
wi se</w>
versch winden</w>
ver letzt</w>
ur y</w>
um s</w>
ts ächlich</w>
tru ck</w>
tot ally</w>
th row</w>
t wi
t eil</w>
stra tion</w>
si tion</w>
s is</w>
s ell</w>
reali zed</w>
re co
pu ter</w>
per sön
n iemals</w>
mitt el</w>
li es</w>
le men</w>
la tions</w>
k lett
k auf
ju mp
j en
invol ved</w>
inst ead</w>
in credible</w>
ide on</w>
gewö hn
genau so</w>
g rea
g ei
fi red</w>
ex tra
ex plain</w>
evi dence</w>
es sen
en ded</w>
dur ing</w>
d or
contin u
c ute</w>
bra in</w>
ber u
b ö
as su
Z wei
Wat son</w>
W hatever</w>
Tex as</w>
Te chni
T in
Sim on</w>
S itu
S hin
O per
Mon ate</w>
Kör per</w>
Krie gs
K ä
Ja ck
I t
H ab
Glü ck
Gephar dt</w>
G ideon</w>
Ein zi
Ed die</w>
Dreadm ills</w>
Co co</w>
Car ter</w>
C ould</w>
Ant wor
Ali son</w>
A L
ün st
ä re</w>
yst al</w>
woll test</w>
wee k
u ch</w>
te ten</w>
su che</w>
st ro
sich er
sci enti
ri ere</w>
pre sen
p rin
na mes</w>
n ers</w>
man chmal</w>
lang sam</w>
lan ds</w>
it z
ir di
hän gt</w>
hol t</w>
her r
gr and
get ro
gesch lossen</w>
gen s</w>
gefra gt</w>
ge arbeitet</w>
fu hr</w>
foc us</w>
en ding</w>
d ys</w>
cha mp
cau ght</w>
c in
bon us</w>
ba th
au l</w>
an o
af ter
ab zu
Z i
Wett bewer
Wel come</w>
Su per
Stra ße</w>
St re
R unde</w>
Pro du
Pal ad
Näch stes</w>
Mo ses</w>
Lu ke</w>
Ir gend
H und</w>
G lor
E S</w>
Da te</w>
D on
Car ol
B ig</w>
über all</w>
y le</w>
we gs</w>
war m</w>
w d</w>
vis it</w>
ur ch</w>
tra ck</w>
ti sh</w>
t olle</w>
su per
stu di
stat t</w>
se ver
schwier ig</w>
schick en</w>
sch uss</w>
rus si
ri er</w>
rec ord</w>
pre ss</w>
pl ant</w>
pic tures</w>
m us</w>
m ous</w>
lo sing</w>
lie b</w>
kann te</w>
k el
in clu
hän gen</w>
ho od</w>
hl st</w>
hier her</w>
hand le</w>
es ome</w>
erkl ären</w>
eh o</w>
di ot</w>
d ying</w>
ca mera</w>
c oo
c lass</w>
beg ann</w>
be weisen</w>
ba g</w>
ar ri
app reci
amer ikani
acc ept</w>
Ta eho</w>
Sy stem</w>
R ed</w>
Plan eten</w>
Loo ks</w>
Ho ws</w>
Ge danken</w>
Ei gen
D ri
D ra
Ch e
wir kt</w>
we aring</w>
tsch ri
t oll
stimm en</w>
spra ch</w>
si tzt</w>
sa tz</w>
ri es
re de</w>
m in</w>
lo wing</w>
li eren</w>
la den</w>
hosp ital</w>
h eu
ges etzt</w>
gel assen</w>
form ance</w>
feh lt</w>
f ear</w>
er ster</w>
ear old</w>
drin king</w>
dou bt</w>
con tra
c s</w>
bl ö
begin nt</w>
ap ologi
ak zep
T or
Sh ut</w>
Ric ardo</w>
Punk ten</w>
F ei
Ear th</w>
E T
Con nor</w>
Coll ins</w>
C l
C ity</w>
Ah mad
1 0000</w>
öff ent
z un
w and
ver trauen</w>
ver si
unk en</w>
un ge</w>
ty pe</w>
tt äu
them selves</w>
ter min
stor ben</w>
stei gen</w>
st ie
sho wing</w>
sch ul
s icht</w>
ol a</w>
liter ally</w>
li er</w>
le gs</w>
it ll</w>
hör te</w>
hear ing</w>
ha snt</w>
h nen</w>
gen de</w>
gefähr lich</w>
g aben</w>
fre e
et tet</w>
est er
erinn ern</w>
entschei den</w>
de ep</w>
dar fst</w>
char ge</w>
ca te</w>
c lin
bo ss</w>
absol utely</w>
Y ep</w>
V e
St ur
Russi a</w>
Mor e</w>
Mar y</w>
Mar it</w>
Leon ard</w>
Le bens</w>
L ou
Jem and</w>
Ja hr
Hel p</w>
Ha mm
H eres</w>
Geschen k</w>
Geh ir
Fil m
Fen ster</w>
Er fol
Da y</w>
D un
D or
D at
Ber u
An ru
zi eht</w>
ver standen</w>
u da
st en
sp ent</w>
secon ds</w>
schli mm</w>
ri es</w>
part ner</w>
pa in
p us
n ea
mar k
m ann
lo ves</w>
la w</w>
k ör
ju d
je dem</w>
h ung
gu tes</w>
go tten</w>
gi ft</w>
ge h</w>
gan genheit</w>
g ent</w>
fortun ately</w>
fa hr</w>
elimin ated</w>
der en</w>
dar k</w>
d as
conver sation</w>
bli ck</w>
bit ch</w>
berei tet</w>
be t</w>
auf hören</w>
ander er</w>
a ck</w>
Zark ons</w>
W and</w>
Ver gangenheit</w>
Tre ffen</w>
T rin
T im
Südkor ea</w>
Son st</w>
Sch rei
Sa fe
R ü
N im
I sa
Hon ey</w>
H ören</w>
Gu ys</w>
Ges prä
Gefän gnis</w>
FB I</w>
D onnie</w>
Cra wl</w>
Ca st
Blu e</w>
Be we
B lo
Au to
Ar sch</w>
zu erst</w>
z ess
wor st</w>
tain ly</w>
sex y</w>
sch o
ph ine</w>
nie man
nach dem</w>
m ans</w>
loo dy</w>
li ghts</w>
könn test</w>
k iss</w>
in du
hö re</w>
häl t
hel ped</w>
hand eln</w>
h om
groß artig</w>
gin gen</w>
ey o
ea ting</w>
cre ated</w>
cover ed</w>
choo se</w>
bo at</w>
att emp
ali en</w>
Zeu g</w>
Tu cker</w>
Th or
Te o</w>
Ta gen</w>
Ta eyo
T oll</w>
T ja</w>
St ar
Sek unden</w>
Sch li
O G</w>
Ma yer</w>
Ma chen</w>
Le bens
Las st</w>
L auf</w>
K le
Hoff entlich</w>
Gebur t
G il
Fin ale</w>
Dy ad</w>
Cosi ma</w>
Col lege</w>
C ant</w>
B ye</w>
B en</w>
ß en
z immer</w>
vi sion</w>
ti ll</w>
te sti
stre et</w>
spre che</w>
sch e
s lo
re ality</w>
pro po
pri son</w>
pr o</w>
per s</w>
p op
o ften</w>
n one</w>
mö glich
ma tters</w>
li ert</w>
le g</w>
las si
l li
ke eping</w>
inter est</w>
ig nor
getro ffen</w>
gesch lagen</w>
ger ettet</w>
g iss</w>
ess er</w>
es en
ein zu
eff ort</w>
che ster</w>
c ru
bro ke</w>
bro chen</w>
beein dru
be wusst</w>
be oba
b site</w>
b ank</w>
Wo chen
V o
Tre vor</w>
Th e
Sel bst
Schlüs sel</w>
Sch au
S oll
R ennen</w>
No t
Nach richt</w>
Lu d
L illi
Kandi dat</w>
K ol
Jac qu
Fa hr
E IN
D ich</w>
Carol ina</w>
Au ge</w>
Al fre
9 0</w>
Über ra
x ed</w>
wü tend</w>
whe ther</w>
war s</w>
up set</w>
unter wegs</w>
ung y
ti schen</w>
ti sche</w>
ti al</w>
t ungen</w>
sol che</w>
si mple</w>
s sion</w>
ru les</w>
nerv ous</w>
neh mer</w>
na tional</w>
n ü
m uni
m ale</w>
län ger</w>
lu ck</w>
l es
interest ed</w>
ha ft</w>
gra tu
glei ch
gel ie
gas ps</w>
fä hrt</w>
fil m
fa mili
f an</w>
exc ited</w>
er wä
com fort
au ßer</w>
atten tion</w>
ar my</w>
ar ms</w>
an k
al lowed</w>
Y ungy
West mor
Th ema</w>
Situ ation</w>
Rom er
Ne olution</w>
Mu d</w>
Kor allen
Ha w
Fo tos</w>
F ein
Er de</w>
Dete ctive</w>
D ale</w>
Cha ri
Ch an
Bea u</w>
An griff</w>
A si
1 8</w>
zess in</w>
y ers</w>
v ar</w>
tra in</w>
ter in</w>
te xt</w>
te chnolo
sü ß</w>
st ance</w>
sp richt</w>
sie ben</w>
sever al</w>
se ven</w>
schi ed</w>
sch rieb</w>
sa ved</w>
sa che</w>
s ou
ro und</w>
ph y</w>
perfe kt</w>
obstac les</w>
no body</w>
n ungen</w>
mani pu
lo ch</w>
letz ter</w>
l v
kl eines</w>
kl ein</w>
il legal</w>
ich t
her um
he al
ha n</w>
glau bst</w>
gi ert</w>
gemein sam</w>
figh ting</w>
e g
den ly</w>
be steht</w>
be kannt</w>
b ought</w>
b lea
b all
Wä hrend</w>
Verzei hung</w>
T eil
S c
Reg gie</w>
R E
Prin zessin</w>
P T</w>
Nach richten</w>
Musi k</w>
Macall an</w>
Lilli an</w>
Li on</w>
Kön ig
Kor allen</w>
Ka mera</w>
Joh annes</w>
Ide en</w>
F oo
F lo
Dur ch
Do kum
Di es</w>
Di dnt</w>
De partment</w>
D eal</w>
Ca thy</w>
Br ing</w>
B rea
Athle ten</w>
An dre
Öff ent
Öffent lichkeit</w>
z ü
wi sst</w>
ver ändert</w>
un less</w>
tsch t</w>
thre at</w>
sy n
sprin gt</w>
sho wed</w>
sho p</w>
schuldi g</w>
schn eller</w>
s eines</w>
rec ei
re search</w>
re dest</w>
r ou
qu ali
pro vi
prepar ed</w>
po or</w>
ne ben</w>
men sch
m ehr
lea der</w>
kämp ft</w>
is sen</w>
i de</w>
hol ding</w>
ha t
ge storben</w>
fu ck
fra gte</w>
f tet</w>
f ing</w>
errei cht</w>
en nt</w>
din gt</w>
de twas</w>
de pen
c ard</w>
buil t</w>
be stä
b ble</w>
at ri
as ure</w>
a mo
a ch
Wettbewer b</w>
Vol k</w>
Ver k
UF O
Ta ges</w>
St ri
Sco tt</w>
S onn
P fer
Möglich keit</w>
Mon ster</w>
Mon aten</w>
Lud wig</w>
Le An
Ja ck</w>
I T
H aus
Glor ia</w>
Glau bst</w>
E ri
Dop ing
De cker</w>
Bli ck</w>
Bewer ber</w>
Be schei
Be fore</w>
Aus sage</w>
Any way</w>
A dri
1 3</w>
zi g</w>
y earold</w>
will ing</w>
week end</w>
w em</w>
ver antwor
v a</w>
unk er</w>
tur ning</w>
st ole</w>
sp ir
sp end</w>
sh y</w>
sci ence</w>
schie den</w>
sag test</w>
ro ad</w>
reco gni
rec or
pla ces</w>
om s</w>
oh len</w>
o gen</w>
ne u</w>
li kes</w>
las h</w>
l esen</w>
it t</w>
it self</w>
interes siert</w>
in i
h under
h eißen</w>
gu red</w>
größ te</w>
gr und</w>
gel esen</w>
gel aufen</w>
fl ying</w>
ex i
en ttäu
ell a</w>
ei li
e chte</w>
comple te</w>
comfort able</w>
ch urch</w>
ch ung</w>
cal m</w>
be tr
bar r
b ts</w>
ar chite
any where</w>
a ir
Yungy ung</w>
Wie der
WAD A</w>
Un glaublich</w>
Tin ker</w>
Sta aten</w>
Rus sland</w>
Rich tig</w>
Prin cess</w>
On ce</w>
N am</w>
M il
La st</w>
K won</w>
Isa ac</w>
Gru ppe</w>
Gil bert</w>
Gi bt</w>
Entschuldi ge</w>
E mm
E gal</w>
C upcakes</w>
Ahmad i</w>
Ab sol
zeich net</w>
wal ked</w>
vi ol
v ent
tra f</w>
they ve</w>
te x
te sten</w>
ta tsächlich</w>
supp ose</w>
stu dio</w>
stu ck</w>
st y</w>
ss a</w>
sel n</w>
schwar ze</w>
schaff e</w>
sch win
sc ent</w>
s ä
ris k</w>
rich tige</w>
respe ct</w>
rei ch</w>
ra ce</w>
qu iet</w>
per formance</w>
on ed</w>
neigh bor
mus sten</w>
mp f
li st
kna pp</w>
kl einer</w>
jo in</w>
j our
is se
hei ra
hand elt</w>
han del</w>
grei fen</w>
go o
f our
e h</w>
de ca
consi der</w>
committ ee</w>
ca pe</w>
boy friend</w>
bo dys</w>
beson ders</w>
besch ü
ar ea</w>
an ds</w>
all eine</w>
Z eh
Was ser
Ver such</w>
V ON</w>
Sch ön
Rich tung</w>
P ut
No body</w>
Mann y</w>
M und</w>
M and
K li
K lasse</w>
Jap ans</w>
Himm el</w>
Haw k</w>
Hab t</w>
Fran ces</w>
E mp
C ro
Brun elle</w>
Beschei d</w>
B A
1 0
z win
wä l
woll t</w>
wen den</w>
w ns</w>
verk auft</w>
uns ch</w>
uda v</w>
tt ern</w>
ti ef</w>
te u
te m</w>
survi ve</w>
sta ying</w>
so ci
sie h</w>
schli mmer</w>
r es</w>
press ure</w>
pp er</w>
on y</w>
mü sst</w>
lei ten</w>
kümm ern</w>
kön nt</w>
kom ple
k ie</w>
j ähri
il o
ig stens</w>
ic al</w>
gesch rieben</w>
gen i
ga te</w>
fü hlte</w>
fre ut</w>
flo or</w>
f iel</w>
f eu
exa mple</w>
erkl är
el te</w>
eigen e</w>
di ge</w>
dar in</w>
da ting</w>
cre w</w>
contin ue</w>
conta ct</w>
ch ter
cer tainly</w>
blo ck</w>
big gest</w>
bie ten</w>
bath room</w>
bas ically</w>
aus sehen</w>
appreci ate</w>
an sehen</w>
al o
ac cess</w>
Z o
We gen</w>
W eißen</w>
V iel</w>
Th ink</w>
Te chnolo
Sta r</w>
S ob
S eht</w>
Romer o</w>
Pro gra
P reis</w>
Lo ck</w>
Ki tty</w>
K ri
Ha are</w>
H or
Geschä ft</w>
G et
F ün
F eu
Eli sa</w>
Einzi ge</w>
E is
Dru ck</w>
B eine</w>
Americ ans</w>
2 3</w>
ö re</w>
Ü ber</w>
zu vor</w>
w Ã</w>
verli ert</w>
verk aufen</w>
ver b
ut z</w>
unh o</w>
unbe dingt</w>
ti ges</w>
sp ro
sor gen</w>
sol di
sident in</w>
sha re</w>
se ction</w>
s m</w>
ri de</w>
rea ding</w>
rea ched</w>
ra di
profession al</w>
pro cess</w>
power ful</w>
po is
p sych
off ic
neu es</w>
mon th</w>
ma t
in nen</w>
hi de</w>
hea d
groß er</w>
gri p</w>
geb aut</w>
gan zes</w>
ga y</w>
ga be</w>
fil e</w>
fi gured</w>
fa hrung</w>
fa hre</w>
f ts
f ru
f lü
f assen</w>
e ben
e as</w>
dre h
disapp o
dau ert</w>
co ffee</w>
call s</w>
beza hlt</w>
ber n</w>
bar ely</w>
as se</w>
ar gu
and a</w>
an gerufen</w>
ac cident</w>
Zu samm
Zeit punkt</w>
Wä re</w>
Wor ld</w>
Wal ker</w>
Vir us</w>
T ab
Str ei
Sti ll</w>
St är
S anti
Re cht</w>
Pin o</w>
P lä
P etro
N et
Mor gan</w>
Ma am</w>
M et
M ei
LeAn n</w>
Kr ystal</w>
Konta kt</w>
Inter esse</w>
I E</w>
Hö lle</w>
Hy unho</w>
Ho ward</w>
E ro
E hr
Drin k</w>
Do esnt</w>
D A</w>
Chari ssa</w>
C y</w>
C al
Bri tish</w>
Ba ck</w>
B au
Ange bot</w>
A z
1 1</w>
über zeu
ä hn
wa gen</w>
w ine</w>
us es</w>
t schaft</w>
st itu
s old</w>
s es
ri d</w>
re v
re ct</w>
pla t
ob s</w>
ne cess
mo ther
mini stration</w>
mi dt</w>
mer kt</w>
li ked</w>
law yer</w>
kti v</w>
kl är
ke ys</w>
k ung</w>
it or</w>
issu e</w>
irgend was</w>
imm edi
i cos</w>
hur ry</w>
hum ans</w>
heraus finden</w>
hel fe</w>
hei ts
h eres</w>
groß es</w>
grea test</w>
gi on</w>
gel ö
ge fü
fur cht
for ce</w>
fol low</w>
fil ms</w>
f ass
ester day</w>
est ly</w>
erinn ere</w>
en tr
en or
ef s</w>
ear lier</w>
dru ck</w>
das selbe</w>
d ungen</w>
c ent
besor gt</w>
be wa
b loody</w>
ann te</w>
Zei ten</w>
Z au
Wis st</w>
Sp ort</w>
Some thing</w>
Sh ould</w>
Sch mer
Sch luss</w>
S la
Reg isse
Ra y
R et
Pla ton</w>
Phili pp</w>
O N
Ge fahr</w>
F l
En gli
Do ctor</w>
Da für</w>
B rin
B ild</w>
5 000</w>
ör der</w>
zus ehen</w>
za hlen</w>
wä hlt</w>
wri ting</w>
who a</w>
we der</w>
wach sen
w unden</w>
w le
under s</w>
traff icking</w>
tion ed</w>
stü ck</w>
stor ies</w>
stell te</w>
schön e</w>
schä tze</w>
sch au
sc ore</w>
sa d</w>
s wear</w>
s har
räu me</w>
on el</w>
no on</w>
mon ster</w>
magi c</w>
ko stet</w>
k r
k et
ide as</w>
i ck</w>
hon or</w>
hei ten</w>
hei m
gro w</w>
gna r</w>
ge tr
ge ment</w>
ga in</w>
g ly</w>
fre ue</w>
fem ale</w>
expe cted</w>
ele ction</w>
d äch
d ere</w>
crea te</w>
clu b</w>
ck er
brin ge</w>
bo tt
blo w</w>
beza hlen</w>
beschä f
be sie
b illi
b ie</w>
b ase</w>
Westmor land</w>
W oo
W ich
T schü
Sy lv
Stu dio</w>
Ste ve</w>
Some one</w>
Sil ke</w>
Ra gnar</w>
Or gan
Nim m</w>
Mo d
M ehr</w>
L ehr
Kore as</w>
Kin dern</w>
It ll</w>
Her r
Haup t
Ha b</w>
Glei ch
Ge gen
Fo to</w>
Dur ch</w>
D emo
Ber ei
Bar nes</w>
Bab ys</w>
B enn
Any thing</w>
4 5</w>
über prü
zi ell</w>
wus sten</w>
wonder ing</w>
woh in</w>
win dow</w>
wei s</w>
weap on</w>
vor sichtig</w>
vo te</w>
ver ti
ver se</w>
ver mu
un e</w>
surpri sed</w>
su l
st om
soll st</w>
schreck lich</w>
schla g</w>
s op
s ong</w>
po ten
pho togra
per im
pa th</w>
p in
on i
ol s</w>
ob viously</w>
mon d</w>
mom ent
min al</w>
men tal</w>
m äch
m ä
li k
le tter</w>
kt ur</w>
kill ing</w>
ka mpf</w>
k us</w>
ie h</w>
ha sst</w>
g än
g rün
g ert</w>
fur ther</w>
fan den</w>
fail ed</w>
est s</w>
er warten</w>
er fol
en ter</w>
en ter
en der</w>
ell es</w>
ele c
de c
begin ning</w>
beg in</w>
be wegen</w>
be halten</w>
an no
absol ut</w>
Wochen ende</w>
Wett kämp
Ver giss</w>
Tr aum</w>
T ran
T at
Santi ago</w>
Sa y</w>
S eil</w>
Per haps</w>
Ma g
L ang
L A</w>
Kin der
Jer sey</w>
Jap an
I S
I G
Hei li
Gri ff</w>
Goo d
G ol
Fa ther</w>
F euer</w>
F al
D em</w>
Br yan</w>
Bes on
Al right</w>
öff net</w>
ä r</w>
zerst ört</w>
z ation</w>
wär st</w>
wi der
tig keit</w>
tic ally</w>
ter ri
st eal</w>
sk ills</w>
si erte</w>
selt sam</w>
schwar zen</w>
s na
ri sk
ren ch</w>
r eli
pl ötzlich</w>
pa ti
p ush</w>
p ol
p hi
nen nt</w>
na tion
mach ine</w>
ma r</w>
m bo
lö sen</w>
ju sti
in for
ie f</w>
i um</w>
i tiv</w>
hö r</w>
her o</w>
han ging</w>
ha dnt</w>
gew onnen</w>
gehol t</w>
for ni
fir m</w>
fa c
ev ening</w>
er lau
er kennen</w>
enjo y</w>
el ten</w>
eh ow</w>
dro p</w>
di gung</w>
der ing</w>
deci de</w>
de partment</w>
co de</w>
benu tzen</w>
ba ttle</w>
b unch</w>
ad vice</w>
ac ting</w>
ab ri
Wor te</w>
Wel che</w>
Weih nach
W en
Telef on</w>
S ant
Punk t</w>
Pro ben</w>
Petro v</w>
Per son
P ol
P aul</w>
O ber
Na z
Min na</w>
Mar tin</w>
Man che</w>
M el
L an
L A
Jacqu eline</w>
I mmer</w>
Hit ler</w>
Gesch ichten</w>
Fu ß</w>
Ex actly</w>
Eu ro
Erfol g</w>
Er fahrung</w>
Di onne</w>
Den ise</w>
Con gress</w>
Co un
C eli
Bra in</w>
Bewe gung</w>
Bei m</w>
Ar chite
A tt
00 000</w>
übri g</w>
zurück zu
y esterday</w>
wün schte</w>
wi ck</w>
v it
tz ig</w>
tre at</w>
ti ckets</w>
t an</w>
star ts</w>
sta te
sp ru
ser vice</w>
ser ve</w>
sen si
se quen
schlie ßen</w>
s her</w>
rei chen</w>
re par
re det</w>
prac tice</w>
pa per</w>
ne te</w>
mil es</w>
mil e</w>
l äch
kla ppt</w>
jem als</w>
j or</w>
inv est
in telligence</w>
ich tet</w>
hundre d</w>
ho fft</w>
hel d</w>
h m</w>
fin ding</w>
ep her
ei en</w>
dr unk</w>
do ping</w>
dan ger</w>
cele bra
care er</w>
bom b</w>
blu e</w>
beg an</w>
be ten</w>
b o</w>
aw are</w>
at ors</w>
al es</w>
ad mit</w>
abo ve</w>
a ts</w>
a ds</w>
Z urü
Wit z</w>
Wir d</w>
V o</w>
U gh</w>
Thor pe</w>
Shi r
Ro ger</w>
Ra j</w>
R eu
R O
Pla tt
N er
Mi gu
Mar mor
Lieblin gs
Lei der</w>
L ily</w>
L assen</w>
Kir che</w>
Kil ly</w>
Hen dri
Gesprä ch</w>
Ein es</w>
Deu t
D ort</w>
Cha mp
C lar
Au gen
A scent</w>
5 00</w>
wen det</w>
vi or</w>
ver ha
tur ns</w>
tre e</w>
tr at</w>
ti s
th alten</w>
ta g
t ball</w>
sud denly</w>
sou l</w>
shoo ting</w>
sho ws</w>
se em
sa hen</w>
responsi ble</w>
re e</w>
pre gn
pla yed</w>
pa in</w>
or ders</w>
ma am</w>
kno ck</w>
k ün
in dem</w>
immedi ately</w>
i k</w>
ho l</w>
good ness</w>
gek auft</w>
gegen über</w>
fin als</w>
erle digt</w>
ent y</w>
en ten</w>
em er
ei ra</w>
eh e</w>
e th
dri ving</w>
deser ve</w>
de ta
da ma
d omin
cu lar</w>
con vin
con cer
clo ser</w>
clim bing</w>
c ops</w>
c aus
bu ddy</w>
bewe gt</w>
as ant</w>
ani sche</w>
ani mal</w>
an aly
alle y</w>
ali forni
after noon</w>
a part</w>
a ffe
W oll
W olf</w>
Ver antwor
Tschü ss</w>
Ta sche</w>
Ta e</w>
Sp i
Sob ald</w>
Sh or
Sch il
Sa unders</w>
S wan</w>
S om
S at
Re den</w>
Re ch
Qu een</w>
Po wer</w>
Ol kar
O s
Mor d</w>
Marc us</w>
Ma tter</w>
Ma ke</w>
Lu ft
Li ste</w>
König in</w>
Ka thle
K jar
Ju li
I mp
H ört</w>
Fä hig
F lor
F an
Every body</w>
E ure</w>
Da ve</w>
D unk
Chr ist</w>
Celi a</w>
C an
B ier</w>
Ar sch
An walt</w>
An na</w>
zo g</w>
x i
ver passt</w>
ver dienen</w>
us ual</w>
un ded</w>
trä gt</w>
spe ed</w>
schlie ßlich</w>
pu ts</w>
progra m</w>
our selves</w>
orig inal</w>
o we</w>
n ess
n ern</w>
mi d
ma terial</w>
lin es</w>
lie ßen</w>
li ved</w>
le v
lau ghing</w>
l ers</w>
kom isch</w>
ki ck</w>
je cts</w>
is o
interess ant</w>
ill ed</w>
i dan</w>
hält st</w>
hor rible</w>
hin ten</w>
hi red</w>
hei m</w>
ha m</w>
gratu lations</w>
gi ves</w>
gef euert</w>
ga z
g ten</w>
g rü
fü hrung</w>
foc used</w>
fall ing</w>
f liegen</w>
every where</w>
ent ed</w>
ent de
em barr
el ess</w>
eil t</w>
drü ben</w>
differ ence</w>
den ts</w>
de fe
d eines</w>
ch ose</w>
c us</w>
bu bble</w>
brau chte</w>
bl ind</w>
big ger</w>
be er</w>
au di
at ory</w>
ar ently</w>
al ist</w>
ad van
a vo
a th
a dy</w>
Woh nung</w>
Wei le</w>
Wa hn
Vir gin
Vide o</w>
Ver einig
Tru ck</w>
Th eater</w>
T ar
Sta te</w>
St ro
Schwar ze</w>
Sch ü
S B
Ru by</w>
Re alität</w>
R A
On kel</w>
Mar go</w>
M ich</w>
L auf
Kranken haus</w>
Kathle en</w>
Il se</w>
H aut</w>
Gri d</w>
Fa st</w>
Dre i</w>
Blei b</w>
Be ds</w>
A ma
A idan</w>
19 8
á n</w>
y ond</w>
wei ght</w>
we h</w>
wa ch</w>
w ling</w>
w ehr</w>
ver ur
ti ally</w>
th es</w>
th a</w>
t chen</w>
st ur
st ant</w>
sp orts</w>
sk in</w>
sel t</w>
sch alten</w>
sam keit</w>
sa mple</w>
re gu
po the
plat form</w>
plan s</w>
offen sichtlich</w>
no tice</w>
n on
men d
le t
it ze</w>
is hing</w>
irgend wann</w>
irgen detwas</w>
ir y</w>
ick en</w>
i erte</w>
her self</w>
h üb
gri ffen</w>
gre w</w>
g ner</w>
für chte</w>
fi re
fa ster</w>
f ör
f liegt</w>
ev ent</w>
erwi scht</w>
er schaffen</w>
emo tional</w>
ein t</w>
dum m</w>
dien st</w>
di vor
da r</w>
d it</w>
conne cted</w>
char ac
c tly</w>
aw esome</w>
ang ry</w>
a y</w>
Z ur
Win chester</w>
Wei ß</w>
Wei se</w>
Wa gen</w>
Virgin ia</w>
Ver trauen</w>
Unter nehmen</w>
St ell
Spiel berg</w>
Sol daten</w>
Sin ce</w>
S z
Ru f</w>
Ra ven</w>
Pre e
Pen ny</w>
P yrami
P ass</w>
N A
Mon at</w>
M eter</w>
Kör per
K ünst
Japan ese</w>
Hendri x</w>
H äl
H em
El i</w>
Dre h
Det a
Chr is</w>
C é
C happ
Brü der</w>
Brazi li
Außer dem</w>
Antwor t</w>
Ab en
3 2</w>
zä hlt</w>
zei ge</w>
z ils</w>
z ept</w>
wich tig
whi sp
wa chen</w>
vor bereitet</w>
vil lage</w>
tra ining</w>
ti mi
ta ste</w>
t är
t w
su it</w>
stor m</w>
st ood</w>
spo ke</w>
sp rochen</w>
sig ned</w>
shi rt</w>
ser vi
schle chte</w>
sch wan
sa r</w>
responsi bility</w>
re cht
ra ise</w>
pul led</w>
pea ce</w>
par k
p icked</w>
on ing</w>
on a</w>
olo gy</w>
ne w
na h</w>
mo der
ma chten</w>
lo cked</w>
lik ely</w>
le ep</w>
lau t</w>
la z</w>
l an</w>
kon ta
k op
k it
k alt</w>
investi gation</w>
ins ane</w>
in no
in iert</w>
ima gin
ig n</w>
i ci
heraus zu
heira tet</w>
h m
ggl ing</w>
g ory</w>
fu cked</w>
fr on
fin dest</w>
fa mous</w>
f th</w>
er st
ell ent</w>
e wig</w>
e k</w>
dri tten</w>
drea ms</w>
destro y</w>
de ed</w>
d ul
cri me</w>
cr ying</w>
concer ned</w>
comm uni
c y
boo ks</w>
blei be</w>
be endet</w>
be enden</w>
b lau
b au
aus sieht</w>
apologi ze</w>
amo unt</w>
UF O</w>
Tit el</w>
They ve</w>
Th om
Ter r
T el
Sti mm
Sta mp
Sp ur</w>
Sei d</w>
Se ele</w>
Schu tz
Schau spiel
S an</w>
Re de</w>
P eter</w>
Off en
O b</w>
Migu el</w>
Mex icos</w>
Mag gie</w>
M örder</w>
Lei stung</w>
L aut</w>
Kat ie</w>
Kar riere</w>
K no
Ju sti
Ho ch
Her z
H uh</w>
Ger man</w>
G ir
G ang</w>
For m</w>
Fin ger</w>
Famili en
Er geb
Du de</w>
C lo
Bra zils</w>
Bon us
Be feh
Be dro
Bar ry</w>
Ab out</w>
A s
A guil
9 9
7 0</w>
z ö
y n</w>
weap ons</w>
war t</w>
vor her</w>
versu chte</w>
ver s
v in</w>
v able</w>
us ually</w>
tz ung</w>
tz te</w>
tu ral</w>
tri es</w>
trau rig</w>
ti ker</w>
th ou
t ells</w>
sus pe
sub ject</w>
stie g</w>
sta tt
st ly</w>
st ems</w>
som ehow</w>
sm ell</w>
sle eping</w>
sh ell</w>
sel bst
sch eiße</w>
ro ck</w>
rei sen</w>
re stri
ran ts</w>
r unter
priv ate</w>
pre tend</w>
pre sent
po se</w>
ol der</w>
oc e
nä her</w>
na st
na he</w>
n it
mem bers</w>
lei sten</w>
le b
krie ge</w>
kom pli
k y</w>
k tor</w>
jo ke</w>
it a</w>
ist in</w>
is st</w>
hal tung</w>
ha ll</w>
glo b
gl ass</w>
gi bts</w>
gesch la
fre u
for got</w>
fol lowed</w>
f ert</w>
f ea
ex pen
es cape</w>
er y</w>
en ever</w>
dra w</w>
do ws</w>
des wegen</w>
der ungen</w>
co st</w>
ci vili
car s</w>
c tors</w>
c ell</w>
bit ten</w>
bis her</w>
beschäf tigt</w>
be s
be antwor
b es</w>
b are</w>
aw ful</w>
at ure</w>
ad ministration</w>
Woh n
Wei ter</w>
War wick</w>
Wa hl
W illi
V ic
UFO s</w>
U laz</w>
Techni k</w>
T u</w>
Shor eline</w>
Ser iously</w>
Se cre
Sch wier
Sch loss</w>
S we
S an
Rich tige</w>
Re geln</w>
R at</w>
Proz ess</w>
Pro be</w>
P D</w>
Nä he</w>
M S</w>
M A
Klin ik</w>
Klin gt</w>
Jack son</w>
I mm
Hoff nung</w>
Ho l</w>
Hi gh
Ha ppy</w>
Ha be</w>
Fi ve</w>
De ck
D ie
D ear</w>
Cé sar</w>
Cro ss
Co ady</w>
C ur
C li
Br au
B ond</w>
Aguil ar</w>
5 7</w>
über leben</w>
ör ung</w>
ñ a</w>
wor l
woh nt</w>
woh nen</w>
we ver</w>
vor zu
victi m</w>
vermis st</w>
v on
tri p</w>
tra ge</w>
ti k
the i</w>
tea cher</w>
te a</w>
t our</w>
stu dent</w>
sto ßen</w>
spe e
sm o</w>
s y</w>
s low</w>
ru le</w>
rich tigen</w>
prä sen
pro to
plan e</w>
pan ts</w>
p al
op ened</w>
necess ary</w>
ne l</w>
mo ves</w>
mit einander</w>
mas sive</w>
m ble</w>
list ening</w>
lar ge</w>
lan gen</w>
lab or
la y</w>
l unch</w>
klett ern</w>
ke eps</w>
k ehren</w>
je kte</w>
it ar
ill en</w>
i an</w>
hung ry</w>
ha use</w>
gre ss
gesam te</w>
gent lemen</w>
gen den</w>
gen annt</w>
gel an
ge zogen</w>
ge zeigt</w>
g ä
fu ent
fra u</w>
for give</w>
for ced</w>
fol lowing</w>
fol gt</w>
fil es</w>
fa ch</w>
f le</w>
ev ent
entschuldi gen</w>
en en</w>
en ces</w>
ehr t</w>
e dge</w>
dru gs</w>
dest ens</w>
desig ned</w>
des k</w>
der te</w>
defin itiv</w>
da chten</w>
d get</w>
con f
comm unity</w>
clo sed</w>
cle arly</w>
ci p
chan ging</w>
ch ea
cen ter</w>
bur g</w>
bro ken</w>
bo ten</w>
bin son</w>
beru hi
be yond</w>
be de
b or</w>
ar re
ag ne</w>
Zusamm en
Zu erst</w>
Yo ung</w>
Weihnach ts
Wahn sinn</w>
Wa ffen</w>
W hat
U sher</w>
Ti me</w>
They ll</w>
Tan te</w>
T au
Sh epher
Sch ä
S ea
S and
Rob bie</w>
Ro binson</w>
Rei se</w>
Re publi
Pree da</w>
Par is</w>
Pa ar</w>
Olymp ic</w>
O ver</w>
O ri
O mar</w>
Neu igkeiten</w>
Mi st
Man thei</w>
Ma sch
M ur
Lö sung</w>
Lea ve</w>
Ka meras</w>
K al
I N</w>
Häl fte</w>
Ger man
Geheim nis</w>
G rün
G lo
G ables</w>
Fü ße</w>
F äl
F Ü
Er zä
Eigen tlich</w>
E je
E a
D ER</w>
Co smo</w>
Ci fuent
Brun o</w>
B ö
An der
überra scht</w>
zu kommen</w>
wle dge</w>
vir us</w>
ver stän
ver br
ur er</w>
tro du
tri al</w>
ti ght</w>
thre at
tho li
teu er</w>
su lt</w>
stron ger</w>
st ea
sh oul
screa ming</w>
schn itt</w>
schei det</w>
scha ften</w>
s ea
r ty</w>
persön lich</w>
per haps</w>
park our</w>
ob wohl</w>
o w
num bers</w>
mis s
mini ster
mi ert</w>
ma gst</w>
m ir
lü gen</w>
kit chen</w>
ka pu
k re
j i
is ing</w>
in stru
ho tel</w>
hin ein</w>
hi ding</w>
hea ds</w>
hea ded</w>
h ello</w>
gu ar
gra ben</w>
gi c</w>
gi ant</w>
gest ohlen</w>
gen e
geh ören</w>
fü hrer</w>
fuck in</w>
four th</w>
f ying</w>
f rie
espe cially</w>
erzä hlte</w>
er mor
er halten</w>
entwick elt</w>
ent schieden</w>
emp loy
ein igen</w>
e qu
dro pped</w>
dig keit</w>
col lea
co p</w>
ck st</w>
ca meras</w>
c ouldve</w>
c op
c l
c il
c en</w>
bö se</w>
brin ging</w>
begin nen</w>
be stimm
be komme</w>
b lan
b alls</w>
as y</w>
ar ran
an rufen</w>
ac compli
a g</w>
Zur u</w>
Wer k
Vereinig ten</w>
Verantwor tung</w>
V ier
Unter stü
Teil nehmer</w>
T räume</w>
Sz ene</w>
Stär ke</w>
St and
Set h</w>
Schwier igkeiten</w>
Sch eiß
Sa ms</w>
S ur
Ro y</w>
Rei he</w>
Re gel</w>
Ray mond</w>
R aus</w>
Pro bably</w>
Per ez</w>
O li
Näch ste</w>
Nach dem</w>
Na tional</w>
N ar
Mand ela</w>
Ma dam</w>
M uss</w>
M ik
Kre u
Kle tter
Kla ppe</w>
K unden</w>
I L
Hol y</w>
Har v
Gre en
Gr en
Gehir n</w>
G E</w>
Fla g
Feu er
F rieden</w>
E hre</w>
Del phine</w>
Car ol</w>
C all</w>
C I
Bil der</w>
Be vor</w>
B rie
B is
B elle</w>
Anru f</w>
Absol utely</w>
19 6
ü gen</w>
ör te</w>
öff nen</w>
z ent</w>
z el
wor k
wor fen</w>
wi t
w ö
w and</w>
ver tei
v ol
uss y</w>
unterstü tzen</w>
un möglich</w>
tt es</w>
ti tle</w>
technolo gy</w>
stär ker</w>
st al
sp ann
so li
sh el
seem ed</w>
se as
schü tzen</w>
sch wi
sa mp
sa ke</w>
rü ck
ru fe</w>
ri age</w>
ra ge</w>
r ying</w>
r uns</w>
r oll
r at</w>
pro of</w>
possi bly</w>
pop u
no tic
neighbor hood</w>
ne ck</w>
na tion</w>
mü sste</w>
mel det</w>
le tting</w>
la dies</w>
konn test</w>
kill er</w>
identi fi
hör st</w>
hei raten</w>
ha bs</w>
h Ã</w>
gu it
go d</w>
glei chen</w>
gen eh
gaz ine</w>
g keit</w>
g al
fän gt</w>
fä lle</w>
fu cker</w>
fe el
fa vor</w>
fa i
f tig</w>
f lich</w>
et y</w>
er hielt</w>
ep h
entfer nt</w>
du e</w>
disappo in
defen se</w>
da l</w>
da gegen</w>
cur r
com puter</w>
clo thes</w>
clin ic</w>
ci a</w>
challen ge</w>
cha in</w>
car ry</w>
c at</w>
c ab
bur n</w>
bo s</w>
be haup
bal ance</w>
b ili
b ein
aul tri
auf geben</w>
an gefangen</w>
ac tual</w>
ac cent</w>
a h
Zo e</w>
Wissen schaft
W es
W eiße</w>
Un n</w>
Sp ra
Shin well</w>
Sel bst</w>
S car
S A</w>
Rü cken</w>
Ro d
R at
Pro f
Platt form</w>
Mo ve</w>
M E</w>
Lü ge</w>
Lie bling</w>
Letz te</w>
La ge</w>
Kur s</w>
Kore an</w>
Kop f
J as
Hy bri
Hi gh</w>
Her zen</w>
Her ren</w>
Hal ey</w>
Ges et
German ys</w>
Ger icht</w>
Er ste</w>
Eje ctor</w>
EIN E</w>
Den ken</w>
Da men</w>
C lu
Brazili an</w>
Berei ch</w>
B ang</w>
2 4</w>
19 4
ö nen</w>
Är ger</w>
wür dig</w>
w ra
vo ic
ver wir
ver trau
ver heiratet</w>
v olle</w>
v ation</w>
tre at
tin y</w>
teil ung</w>
teil t</w>
star s</w>
spür en</w>
sp rung</w>
sp in
sol ange</w>
smo ke</w>
si des</w>
set t
se es</w>
schwan ger</w>
sc or
sa tz
re qu
re f
re al
ra ised</w>
r än
r oll</w>
pregn ant</w>
ordin ary</w>
op ening</w>
nu tzen</w>
nieman den</w>
neu lich</w>
na ture</w>
n ine</w>
mö chten</w>
men te</w>
ma g
lin ks</w>
li ano</w>
l icht</w>
kl ar
kann ten</w>
k ni
k is
k an
is mus</w>
inner halb</w>
in trodu
im possible</w>
il ed</w>
ig liano</w>
ig es</w>
i ga
hy bri
har der</w>
gesch ä
gen ie
gel ogen</w>
g lie
fin an
feel ings</w>
f rea
exc ept</w>
er rt</w>
eas ier</w>
e chter</w>
dum b</w>
di sk
destro yed</w>
der er</w>
depen dent</w>
d unk
d oll
compli cated</w>
com e
cha ir</w>
ch i
cap tain</w>
camp a
c ement</w>
bu ch</w>
bru ch</w>
br o</w>
blea ching</w>
bet eili
be hör
bar en</w>
audi ence</w>
arbei tete</w>
an im
al low</w>
ad ult</w>
ad dress</w>
a gen
Wettkämp fer</w>
Wal shy</w>
Vo ice</w>
Valent ines</w>
Valent in
U R
Tr au
T our</w>
Stro m</w>
Sla v</w>
Sek unde</w>
Schli mm
Sant a</w>
S ig
S ally</w>
R es
R I
Pa pi
P T
N g
Mi d
Lo ve</w>
La ger
L au
Kön n
Kun st</w>
Ka p
K rist
J e</w>
I sland</w>
Hol mes</w>
H A
Gri gor
Gem ein
G ent
Fre u
Fin ally</w>
Fan ta
Eu rope</w>
Emm anu
Ein er</w>
Dor f</w>
Den nis</w>
D E
Cor igliano</w>
Bes uch</w>
Bedro hung</w>
Be ing</w>
B re
B an
Au bre
Ar m
Ab iga
99 s</w>
zun ehmen</w>
wär ts</w>
wi ld</w>
wer k</w>
wei Ã</w>
verantwor tlich</w>
ver wand
ver folgen</w>
tä r</w>
to i
they d</w>
ther wise</w>
th out</w>
te sts</w>
te ste</w>
t each</w>
stre ss</w>
sti ck</w>
sig nal</w>
si mp
se at</w>
sch ri
sc ale</w>
sa ß</w>
s wing</w>
s co
ru s</w>
ro of</w>
rec ently</w>
re min
r y
pri ce</w>
pre siden
po p</w>
pil ot</w>
o clock</w>
no se</w>
ner in</w>
men tioned</w>
me e</w>
mana ged</w>
lo vely</w>
lo ts</w>
lo cation</w>
lan gu
l ungen</w>
kon trol
k eln</w>
j unge</w>
j obs</w>
imm er
i al</w>
hel ps</w>
ger in</w>
ge spielt</w>
freu en</w>
fl us
fal sche</w>
fa hrt</w>
ex cuse</w>
ev ents</w>
et ings</w>
et h</w>
erfol grei
er zi
er lich</w>
er inner
emp ty</w>
e uren</w>
e ding</w>
drü cken</w>
dor thin</w>
do ors</w>
defe at</w>
de p
de mo
cra ft</w>
cour t</w>
cor por
com mer
bu cks</w>
bla me</w>
bi o
bi et
be suchen</w>
be ha
be findet</w>
ban ds</w>
bab ies</w>
b ys</w>
an z
a partment</w>
Zurü ck</w>
Wi thout</w>
Ver standen</w>
U p</w>
Th ree</w>
Su che</w>
Su b
Stamp er</w>
St ellen</w>
Se an</w>
Sch ick
S t</w>
S har
Ri esen
Re staurant</w>
Ra go</w>
O J</w>
Ni pp
N ope</w>
N Y
Men sch
Marmor a</w>
Mar gar
Ma ma</w>
M ill
M a</w>
Lö we</w>
L en</w>
L at
Kon gress</w>
Ken ny</w>
Ka ffee</w>
Jo an</w>
J ungen</w>
H under
Gr and
Geburt stag</w>
Ga be</w>
G un
Do ña</w>
Din gen</w>
D N
Con gratulations</w>
Chin a</w>
C our
Bo ston</w>
Bo ss</w>
Blu t
Bar ack</w>
Ba d</w>
B ell</w>
Auf merk
2 00</w>
ür en</w>
zu stellen</w>
z te</w>
wor m
woh ner</w>
win ner</w>
will kommen</w>
wel t
w unsch</w>
victi ms</w>
vi ous</w>
versi ty</w>
ver raten</w>
ver l
ver gi
un tain</w>
trei ben</w>
ti ves</w>
t u</w>
t ch
suc cess
su chung</w>
strate gy</w>
stimm ung</w>
ss ing</w>
spra chen</w>
sk y</w>
si ze</w>
sex u
se par
schaff te</w>
sch luss</w>
sa cri
sacri fi
rä ul
rec ent</w>
re st
posi tive</w>
po unds</w>
ph ones</w>
p ein
or ity</w>
off en</w>
mu tter</w>
mo thers</w>
min destens</w>
mi c</w>
men tion</w>
mehr ere</w>
m ely</w>
loy al</w>
le u
lau ghter</w>
la g</w>
l ern
k um</w>
k ul
k ri
is es</w>
inv ited</w>
imm ig
ilo sop
ier ten</w>
ho li
hau en</w>
h of</w>
grun ts</w>
gro wing</w>
gra de</w>
gr ass</w>
glei che</w>
gi eren</w>
geschla fen</w>
gesch ehen</w>
ger ei
gen e</w>
fra gt</w>
for mer</w>
fa ke</w>
f ool</w>
f lie
erle digen</w>
drin nen</w>
dr än
do wn
disc uss</w>
dies el
develop ed</w>
de te
da vor</w>
cu stom
co ordin
ca tions</w>
bul l
bu ying</w>
brea king</w>
berei ten</w>
ber ts</w>
belie vable</w>
be d
b les</w>
au tom
attemp t</w>
att or
at ur</w>
arri ved</w>
al ter</w>
al right</w>
al ds</w>
ad di
acc ep
Zei chen</w>
Wh ile</w>
Ver tei
V ort
Tim es</w>
T w
T un</w>
Stur m</w>
Sta ats
Sonn en
Si ob
S un
S ollen</w>
S S
Ri si
Reu ben</w>
Po sition</w>
Pa ti
P ause</w>
P as
Ni ke</w>
Mo unt</w>
Mo st</w>
Mi ck</w>
Mein st</w>
Mar is
Ma dri
M mm</w>
Kjar tan</w>
Je des</w>
I ra</w>
I denti
Gu ess</w>
Ges ell
Gei st</w>
Gan ze</w>
G itar
Frü h
Emmanu el</w>
EN T
E ins</w>
Don alds</w>
C ool</w>
Benn ett</w>
B ess</w>
B aum</w>
Aufmerk samkeit</w>
Ar tie</w>
Ar ti
Ar me</w>
An gel
Abiga il</w>
A w</w>
A w
A is
1 2
í a</w>
äu me</w>
än der</w>
än de</w>
ß ig</w>
zu min
zumin dest</w>
zieh e</w>
zei gte</w>
z in</w>
z ard</w>
wunder bar</w>
wir ken</w>
wa cht</w>
vir on
ver öffent
ver steckt</w>
ver stecken</w>
ven ue</w>
un da
tri ck</w>
tra vel</w>
tr oll
tr ash</w>
toll er</w>
thous and</w>
ther ed</w>
testi mon
techni que</w>
sy stems</w>
stei gt</w>
st ry</w>
st range</w>
st ran
st ir
st ert</w>
spir it</w>
sor gt</w>
sol ve</w>
sin kt</w>
sha me</w>
sch mer
sch ar
sc en
samp les</w>
s wa
s ka
räul ein</w>
re staurant</w>
qu it</w>
pro per
pro bi
pl enty</w>
op les</w>
me dia</w>
m i</w>
lea p</w>
lau gh</w>
l in</w>
kno wing</w>
ki d
ka pi
k lu
ing ly</w>
ie den</w>
i ffs</w>
hor se</w>
ho o
hi o</w>
herauszu finden</w>
hei ß</w>
h eiße</w>
gä be</w>
größ ten</w>
gr and</w>
gewöhn lich</w>
gewin nt</w>
gener al</w>
gelö st</w>
gel aden</w>
gehol fen</w>
gef ol
geb oren</w>
ge dreht</w>
g uns</w>
g old</w>
foo tage</w>
fei ern</w>
fa ces</w>
f ting</w>
exi sti
evi l</w>
er gibt</w>
er fü
enttäu scht</w>
en z</w>
el son</w>
e d
dru g</w>
di rty</w>
den falls</w>
dar d</w>
conne ction</w>
confi dent</w>
con qu
chan ges</w>
ch tung</w>
ch ie</w>
bel on
behör de</w>
beeindru ck
be comes</w>
bas ed</w>
b rie
aus ende</w>
au st
att ra
ass es</w>
as leep</w>
arre sted</w>
ani schen</w>
akzep tieren</w>
aff ord</w>
ad d</w>
ab li
Zu gang</w>
Zu g</w>
Zau ber
Yor ker</w>
Wur m
Vor stellung</w>
Unter schied</w>
Un i</w>
Th ro
Telefon istin</w>
T ier</w>
Stri ke</w>
Str eit</w>
Ste u
Schn ell</w>
Put in</w>
Progra mm</w>
Pro to
Pri sm</w>
P ul
P ops</w>
Nor th</w>
Mili tär
Ma ki</w>
Lie ber</w>
Li ve</w>
Lei che</w>
L ane</w>
Ka mpf
K leid</w>
Je de</w>
Indi an</w>
Hö he</w>
Hinder nisse</w>
Gu tes</w>
Gri gory</w>
Gefü hle</w>
Ge fallen</w>
For tschri
F räulein</w>
F rench</w>
F lü
F est
Euro pa</w>
E ier</w>
Dur ning</w>
Clar a</w>
C y
C lash</w>
Bü hne</w>
Bie sts</w>
B ob</w>
Az off</w>
An wäl
Alfre do</w>
Adri en</w>
A my</w>
A mt</w>
A L</w>
2 1</w>
1 8
ä ten</w>
y all</w>
y al</w>
wich tiger</w>
wa hre</w>
w ow</w>
w ind</w>
ver letz
v eh
u tion</w>
ti ed</w>
thre w</w>
th eater</w>
ter na
te gri
tau ght</w>
ta ten</w>
t is</w>
sto ster
stan tly</w>
st ons</w>
spiel te</w>
sp or
sm oo
sei ts</w>
schä tzen</w>
sch mu
sc ra
samm eln</w>
s tha
s nea
ro b
ri di
re sc
qu een</w>
prom ised</w>
pre fer</w>
pla ced</w>
par ts</w>
par king</w>
par ano
pa ying</w>
pa ck
p as</w>
off ered</w>
notic ed</w>
no ther</w>
no te</w>
nis sen</w>
mp e</w>
moment um</w>
mo del</w>
mini ster</w>
mein t</w>
m one</w>
m als</w>
lie b
li ty</w>
l ene</w>
l as</w>
krie g</w>
kno cked</w>
ja il</w>
in ion</w>
in i</w>
in ci
ich ts
i diot</w>
high er</w>
hi e
h i</w>
gre e</w>
go al</w>
gesp errt</w>
gesch ossen</w>
gere det</w>
gel ei
ge sucht</w>
ge braucht</w>
ga mes</w>
fri end
feh l
fal schen</w>
f tung</w>
expen sive</w>
exc iting</w>
ex e
ex act</w>
erle bt</w>
emer gency</w>
elec tri
e qui
dre ssed</w>
doll ars</w>
do in</w>
disapp ear</w>
di sp
di ck</w>
dan cing</w>
conc ern</w>
clim ber</w>
cas es</w>
car es</w>
ca ke</w>
bu ch
bin ation</w>
beschü tzen</w>
be sprechen</w>
b ü
auf re
at ures</w>
assu me</w>
app ear</w>
an ts</w>
ad verti
Wa ch
Ve vers</w>
To i
Tal k</w>
T ry</w>
Siob han</w>
Si v</w>
Sh ell</w>
Schick sal</w>
Sch wan
Sch uh</w>
Sch a
S it</w>
S MS</w>
Rich ter</w>
Ran ch</w>
Publi kum</w>
Pre tty</w>
Ple asant</w>
Pf und</w>
Olkar i</w>
O ba
O L
Mo der
Mitt el
Mis sion</w>
Mc Donalds</w>
Lou is</w>
Le g</w>
L or
L ar
Kön nte</w>
Kin o</w>
Ki ppe</w>
K ev
I S</w>
Hur ry</w>
He er</w>
Hamm ond</w>
H ill</w>
Grigor i</w>
Glück wunsch</w>
Geheim nisse</w>
G ele
Exc ept</w>
Er st</w>
Er mitt
Den k</w>
D all
D C</w>
Cuth berts</w>
Boo t</w>
Bo th</w>
Beh and
Be st</w>
Be gin
Ba i
B ord</w>
B ol
B j
Ar mee</w>
Ad ele</w>
A gent</w>
A b</w>
2 2</w>
än g
Überra schung</w>
Ä n
zerst ören</w>
x i</w>
weiter machen</w>
wei b
ver steht</w>
ver stehst</w>
ver bin
un ce</w>
twi ce</w>
tt el</w>
ton i
to wer</w>
to wards</w>
thou ghts</w>
t ungs
suspe ct</w>
state ment</w>
ss es</w>
ss er</w>
spru ch</w>
si tz
shi ps</w>
sha pe</w>
setz te</w>
secre ts</w>
s sten</w>
rä fte</w>
russi schen</w>
ru in</w>
rin gs</w>
ran ch</w>
pro gress</w>
par k</w>
oper ation</w>
op inion</w>
op h</w>
ol es</w>
ol en</w>
ne arly</w>
na tural</w>
mit ten</w>
mil lions</w>
ma jor</w>
m essen</w>
lo p
langu age</w>
labor atory</w>
ka y
k n
k bar</w>
j ung</w>
impre ssive</w>
imp ro
hö ch
har te</w>
ha se</w>
guit ar</w>
größ er</w>
gro ans</w>
go sh</w>
gin a</w>
ge beten</w>
g ungen</w>
g net</w>
führ te</w>
fol ks</w>
fol ge</w>
feu ern</w>
famili ar</w>
erklär t</w>
er stes</w>
ent kommen</w>
e um</w>
di stance</w>
des cri
de aling</w>
dar ling</w>
d rei
d are</w>
ck en
cap able</w>
br ü
besch lossen</w>
auth ori
au ff
as i
appro a
Zu hause</w>
Wür de</w>
W under
W atch</w>
W A
Va ters</w>
Un fall</w>
Tor o</w>
To des
Thro at</w>
The or
Te e</w>
T at</w>
Sy ri
Su ch</w>
Stra te
Schwar zen</w>
S kla
S as
Ro ck
Re ef</w>
Pro fi
Pri v
O ma</w>
O hio</w>
N one</w>
N etz
Men schen
Margar et</w>
Madri d</w>
M mm
Le op
La dies</w>
Kü che</w>
Kom pli
K as
Inter ess
In v
In sel</w>
H eil
Gre tchen</w>
Gra b</w>
Gr und
Go ing</w>
Fähig keiten</w>
Erinner ung</w>
Ein ige</w>
E c
E L
Dan ach</w>
Dall as</w>
Da ch</w>
D ep
Co pp
Ch ang</w>
Car l</w>
Brasili aner</w>
Bl ö
Bai ley</w>
B rief</w>
Aubre y</w>
Au ßen
At lan
4 00</w>
äu ß
äu men</w>
y ard</w>
wo ke</w>
wi tzig</w>
wi ssen
wen igstens</w>
weiter en</w>
we dding</w>
w ell
vi ert</w>
versch wunden</w>
ver spreche</w>
ver sion</w>
veh ic
un fortunately</w>
tru ly</w>
trei bt</w>
toi let</w>
tic le</w>
thous ands</w>
testimon y</w>
temp er
tal e</w>
ta r</w>
t ele
sug gest</w>
su cks</w>
stitu tion</w>
sta ff</w>
st ab
squ are</w>
spür t</w>
spee ch</w>
so wieso</w>
so bald</w>
sk i</w>
si ght</w>
sel f
sei te</w>
se a</w>
schn ei
schei den</w>
sch we
sc ow</w>
sc ary</w>
ru pt</w>
ru ft</w>
ridi cul
r über</w>
qu o
pla yer</w>
pe oples</w>
pa ir</w>
pa g
pag anda</w>
p atri
our ce</w>
opp o
näch stes</w>
mo d
mem ory</w>
mei ster</w>
me chan
ma tch</w>
ma ck</w>
m ood</w>
m eter</w>
lo cks</w>
le tte</w>
lan det</w>
la tor</w>
l oud</w>
l it</w>
l auf</w>
kör per</w>
konzentri eren</w>
kni fe</w>
kin ds</w>
kapu tt</w>
k ol
k ins</w>
jour ney</w>
it z</w>
ir re</w>
im i</w>
il t</w>
il leg
ih res</w>
ie gel</w>
hum an
hi stor
ha ssen</w>
h h</w>
h em
guil ty</w>
gli ed</w>
ger y</w>
gener ation</w>
ge brochen</w>
g ru
fra gst</w>
fil men</w>
f ts</w>
f ly</w>
extre mely</w>
ex pl
event ually</w>
est abli
erinn ert</w>
en viron
en gin
en dete</w>
dri ver</w>
der zeit</w>
de e</w>
dama ge</w>
cor als</w>
continu es</w>
che ering</w>
ch tig</w>
campa ign</w>
c lassi
brea th</w>
bra ve</w>
be eilen</w>
aultri te</w>
as sh
ar beit</w>
an ten
an geht</w>
al li
ab hän
Wit ze</w>
What d</w>
We bsite</w>
W us
W et
W ant</w>
Tur n</w>
Tra ining</w>
Taeyo on</w>
Südkor eas</w>
St and</w>
Spiel en</w>
Sp itze</w>
Sp ea
So unds</w>
Schw ung</w>
Safe guard</w>
S ource</w>
S al</w>
Ro ck</w>
Rei den</w>
Regisse ur</w>
Rea ction</w>
R espe
Park our
P an
P ac
Oper ation</w>
Ob wohl</w>
OR IG
ORIG IN
ORIGIN AL</w>
Ni ck</w>
Nat ur</w>
N elson</w>
N ET
NET F
NETF LI
NETFLI X</w>
Mo scow</w>
Min ute</w>
Mexik os</w>
Me er
Ma terial</w>
M imi</w>
Li fe</w>
Kreu z
Klin ge</w>
Ki ds</w>
Kar te</w>
Joh n
IC O</w>
Hon estly</w>
Ge wi
Fäl le</w>
Frei heit</w>
Fein d</w>
F it
F F
Engli sh</w>
Ec bert</w>
E rei
E ast</w>
E Ma
Dy lan</w>
Do e</w>
Dam als</w>
Da ten</w>
DN A</w>
D em
Con way</w>
Cifuent es</w>
Cha in</w>
C ent
Bun des
Bul let
B us
B esser</w>
B ein</w>
B E
Arsch loch</w>
Ar m</w>
Al most</w>
A nother</w>
A gain</w>
3 00</w>
2 30</w>
ün den</w>
über lebt</w>
ö glich</w>
än derung</w>
zwin gen</w>
zep rä
wo her</w>
wer k
wei ßen</w>
wa ffe</w>
w eh
versch win
ver ändern</w>
ver i
ver hin
ver ab
unh wan</w>
under standing</w>
tt on</w>
tt in</w>
tra cking</w>
tr aut</w>
ti gung</w>
ti e
thro at</w>
teri als</w>
ter t</w>
ten der</w>
t ur</w>
t nis</w>
t ens</w>
suc cess</w>
ssi g</w>
spiel e</w>
speci fic</w>
sp are</w>
soldi ers</w>
sil ent</w>
sh ouldve</w>
sex ual</w>
schwer er</w>
schli mm
sch na
sau ber</w>
s word</w>
s un
s mile</w>
s me
s elling</w>
ru tscht</w>
respe kti
reas ons</w>
re qui
re fer
ran g</w>
pro f
present ing</w>
ple asure</w>
plan ning</w>
pie ces</w>
phi c</w>
pein lich</w>
pain ting</w>
p lo
p are</w>
op timi
o p</w>
ni ght
ni g
ne un</w>
nach gedacht</w>
ma ß
m alen</w>
le be</w>
lau tet</w>
kra ft</w>
k tive</w>
ju dge</w>
inspi ri
inclu ding</w>
in flu
i to</w>
i on
ho ff
hei mlich</w>
hea vy</w>
he ben</w>
gro w
glich en</w>
gi er
gi bst</w>
gew ann</w>
gelie bt</w>
gelan det</w>
ge wartet</w>
ge plant</w>
g ging</w>
fä hr
furcht bar</w>
fl uss</w>
fes thalten</w>
fan cy</w>
f ran
f light</w>
f ill</w>
f arm</w>
ex pla
et ie</w>
ess or</w>
er o
er for
en s
en a
e es</w>
drin ks</w>
dr ück
do ctors</w>
direc tly</w>
di um</w>
den e</w>
de ten</w>
de mon
de ad
da her</w>
d der</w>
cul ture</w>
cor n</w>
cor ding</w>
con om
co unter
cle ver</w>
cla im
cho ir</w>
charac ter</w>
chan ces</w>
ch icken</w>
bu g</w>
break fast</w>
bla h</w>
belie ved</w>
beg ei
beein flus
be a
b ins</w>
auf nehmen</w>
auf halten</w>
auf genommen</w>
ass ing</w>
ar rest</w>
anim als</w>
an geh
agre ed</w>
Zei g</w>
Z we
You d</w>
Y unhwan</w>
Wom en</w>
Wieder sehen</w>
W en</w>
Vil lage</w>
Vi zeprä
Ver brechen</w>
V ene
Un til</w>
Un s</w>
Un cle</w>
Th ings</w>
Ter min</w>
Ta ps</w>
T ol
T ie
St ea
So gar</w>
Sch midt</w>
Sch ie
Sch er
S cra
S ER
Roo se
R ö
R ose</w>
Prä sidentin</w>
Prin ce</w>
Philli ps</w>
Ori gin
Op en</w>
N ig
N ie
Mensch heit</w>
Me eting</w>
Maris ol</w>
Ma je
M K</w>
Leop old</w>
L ola</w>
L it
Künst ler</w>
Koti tes</w>
Kev in</w>
Kar ten</w>
K oo
K ette</w>
I diot</w>
Hinter n</w>
Ha mmer</w>
H unger</w>
H op
H eld</w>
H eim
H ank</w>
Ge schafft</w>
G ar</w>
For schung</w>
F li
Eu er</w>
Ero sion</w>
E ben
Dreadm ill</w>
Davi es</w>
D au
Cy rus</w>
Copp ola</w>
Cast le</w>
C H</w>
C DA</w>
Brun ner</w>
Brasili ens</w>
Bar rier</w>
Aus schuss</w>
Ander son</w>
A l</w>
A ff
2 8
überzeu gen</w>
zeu ge</w>
zei tig</w>
za hl
z wan
z o</w>
y on
worm hole</w>
wich tige</w>
wi c</w>
who ever</w>
wh ose</w>
wei st</w>
wea k</w>
wat ched</w>
w ungen</w>
vor n</w>
vi er
vi du
ver sich
ver liebt</w>
uns eres</w>
tor en</w>
ti z
ti ven</w>
ter restri
temp or
t un
sy mbo
supp or
sti sche</w>
stan ds</w>
st omach</w>
st it
st eps</w>
spre ch
sp ü
sour ce</w>
sm us</w>
ser ved</w>
ser iously</w>
sensi tive</w>
scri pt</w>
scre en</w>
scienti st</w>
schla u</w>
sc ars</w>
sa mt</w>
rup tion</w>
recei ved</w>
r ar
pus hed</w>
pur pose</w>
pro be</w>
pra kti
pla tz</w>
om ich
om eter</w>
offic er</w>
oce an</w>
o fer
ofer wic</w>
nu ts</w>
no where</w>
ni mm</w>
na de
n ings</w>
my ster
mu st
mom ents</w>
mel in</w>
mel den</w>
mann s</w>
ma gazine</w>
lo w
letz tes</w>
lett ers</w>
lear ning</w>
le er</w>
lan ger</w>
k ness</w>
k et</w>
k einem</w>
j ün
j ungen</w>
is land</w>
in en</w>
ilosop h
ie st</w>
hol te</w>
hie ß</w>
hi re</w>
herr scht</w>
h o</w>
guar an
guaran te
gu est</w>
gi b</w>
gesch ieden</w>
gere gt</w>
gel d</w>
gefü hl</w>
gefol gt</w>
gef re
gar age</w>
fü hlst</w>
fi xed</w>
fi fth</w>
ff el</w>
fet y</w>
fel low</w>
fe ed</w>
fa ci
f rieden</w>
f o</w>
en ha
em per
el a
einig es</w>
eh em
e du
e conom
dri tte</w>
dra wing</w>
di stra
deut lich</w>
desig ner</w>
des per
der al</w>
de ep
dan kbar</w>
da ted</w>
da hin</w>
d eln</w>
coun tr
con sent</w>
comp ani
clim b</w>
ck e
ch er
c at
bott om</w>
besor gen</w>
beoba chten</w>
beg onnen</w>
bede uten</w>
be finden</w>
außer irdi
ar ed</w>
appro ach</w>
ant as
al ed</w>
ac count</w>
ab or
a do</w>
a ce</w>
Wor über</w>
Wett kampf</w>
W on
W ein</w>
V ER
Under woods</w>
Un ter</w>
Un less</w>
Un fortunately</w>
UN G</w>
Tom orrow</w>
Tom omich
To o</w>
To day</w>
Tha ce</w>
Taeyo ung</w>
T ö
T ier
T ick
St or
St art</w>
Spra che</w>
Set z</w>
Schutz wehr</w>
Re dard</w>
R as
P sych
P op
O ze
Neu es</w>
Nach bar
Mit ch</w>
Min nie</w>
Mili tär</w>
M ut</w>
Li ttle</w>
Lei ch
Justi z
Juli a</w>
Jo el</w>
I van</w>
Hän den</w>
H un
H as</w>
Good bye</w>
Go ttes</w>
G melin</w>
Fün f</w>
Fu ß
Franc es
Fran ce</w>
Flug zeug</w>
Flor i
En dlich</w>
E s
E oferwic</w>
E ach</w>
Dro gen</w>
Demo kra
Da durch</w>
D ä
Cre ws</w>
Chin ese</w>
Char lo
C ou
Bro ck
Ber nade
B us</w>
B ir
Auf nahme</w>
Au tos</w>
Ale x
Ais ha</w>
Aben dessen</w>
A gency</w>
A gen
A M</w>
19 5
1 9</w>
1 80</w>
0 ern</w>
übri gens</w>
ähn lich</w>
Í var</w>
zu geben</w>
zei t
worl ds</w>
woo d
wom öglich</w>
we st</w>
we bsite</w>
war tete</w>
wa i
vor bei
vi l</w>
vi erten</w>
ver tre
val u
v ant</w>
us er</w>
up stairs</w>
up on</w>
unda tion</w>
un er
tro ops</w>
treat ment</w>
tre mend
tr aum</w>
ther ap
the tic</w>
th ri
tel udav</w>
te eth</w>
sy mp
sus pen
sug gest
stu dy</w>
stell ten</w>
steh len</w>
star d</w>
sta mm
st in</w>
sp ending</w>
sour ces</w>
sol ution</w>
sig n
si sters</w>
si mu
shi ft</w>
sa ving</w>
s ni
ru p</w>
rom an
ri son</w>
rele ase</w>
re present</w>
re ef</w>
r n</w>
qu ar
pu mp
produ ct</w>
pre ssion</w>
pre di
pho tos</w>
pe t</w>
p tion</w>
p ool</w>
p h</w>
offi cial</w>
nä mlich</w>
n y
n either</w>
mp s</w>
mother fucker</w>
mm ing</w>
mit nehmen</w>
minister ium</w>
mi schen</w>
mi es</w>
mal erweise</w>
ma tic</w>
ma terials</w>
m ulti
lo wer</w>
lo cal</w>
lie bte</w>
li m
li fe
lei den</w>
ker l</w>
justi ce</w>
j ury</w>
inno cent</w>
in cre
identi fy</w>
hüb sch</w>
hunder t</w>
hr ungs
hin zu
hi ts</w>
hal lo</w>
grun ting</w>
gress man</w>
gre ssi
gra v
go d
glie der</w>
gl ed</w>
gi en</w>
gen en</w>
gemein t</w>
ge hofft</w>
g isch</w>
g ilt</w>
g ger</w>
foo tball</w>
fin gers</w>
fi ziert</w>
ff en
fail ure</w>
extra ordinary</w>
ex ist</w>
erinner st</w>
er er</w>
enga ged</w>
el en</w>
docum ent
dest o</w>
der es</w>
d nis</w>
cri minal</w>
contra ct</w>
con stru
comm on</w>
cli ents</w>
ci es</w>
champ ion</w>
ch i</w>
ch em
car ds</w>
bri dge</w>
brea the</w>
bo dies</w>
bil den</w>
biet et</w>
be trifft</w>
be kommst</w>
be ar</w>
ba tter
ba tt
b lieb</w>
aus schuss</w>
at oren</w>
as ion</w>
arbei ter</w>
ar at</w>
ad ed</w>
ab ly</w>
a x
Z ieh</w>
War en</w>
W esen</w>
W ed</w>
Vene zu
Tomomich i</w>
Technolo gie</w>
Sylv ere</w>
Sta d
Sp ear</w>
Sher iffs</w>
Sha un</w>
Sha ll</w>
Sco t
Schil d
Sch ein
SB K</w>
S au
Regi er
R ich</w>
Na tion
Mon tag</w>
Mich elle</w>
M ä
M y
M any</w>
M ani
Li am</w>
Lan ze</w>
La ger</w>
Ko ordin
Ja m
I ma
I M
Hol t</w>
Ho tel</w>
Green grass</w>
Gr unde</w>
Gel d
Gar ten</w>
G en</w>
G as</w>
Fre un
Frances ca</w>
Er wachsen
Entschuldi gen</w>
Entschei dungen</w>
Ele k
Ehr lich</w>
Deta ils</w>
Da her</w>
Da ds</w>
DI E</w>
Com puter</w>
Col um
Cl int</w>
Christ oph</w>
CI A</w>
Bü cher</w>
Ber icht</w>
B ank</w>
Auf gabe</w>
Ar chie</w>
Andre w</w>
Ak zent</w>
Afri ca</w>
A ssi
A be</w>
20 17</w>
2 8</w>
2 40</w>
2 000</w>
über nehmen</w>
über legen</w>
ör st</w>
zi er
za hlt</w>
z a</w>
x es</w>
wä hlen</w>
wus st
win ning</w>
win dows</w>
wi de</w>
wh er
wer det</w>
weiter hin</w>
wei ger
vi k</w>
versu s</w>
ver zei
v elt</w>
uni que</w>
tr ou
te sting</w>
te stet</w>
te m
te ful</w>
tau chen</w>
ta ins</w>
stu dents</w>
stru cture</w>
sta g
st rea
spe zi
so zi
sin ging</w>
se ts</w>
se cure</w>
se cu
schw öre</w>
schaff st</w>
ru ined</w>
re gar
ra dio</w>
r um</w>
pro vo
pp er
physi cal</w>
pe ze</w>
pas sierte</w>
pa pers</w>
p ment</w>
p is
or ies</w>
on y
om en</w>
nu clear</w>
nimm st</w>
nie der
nation alen</w>
mu ra
medi cal</w>
mar riage</w>
mag ne
m än
m on</w>
m ally</w>
li ft</w>
lev els</w>
ler in</w>
la tely</w>
la ted</w>
krie gst</w>
k ran
k lug</w>
jar ke</w>
issu es</w>
in ieren</w>
ie ve</w>
ic ke</w>
ic a</w>
i ds</w>
har m
h ou
gu t
gra teful</w>
glob al</w>
gewi cht</w>
ges und</w>
gef lo
ge halten</w>
ge führt</w>
ge fahren</w>
ga tive</w>
g gle</w>
flu g</w>
fin ds</w>
fi g</w>
fi es</w>
fas hi
fanta stisch</w>
fa thers</w>
f unden</w>
f ie</w>
et zen</w>
et ten</w>
ess ing</w>
ermor det</w>
ent lang</w>
ene my</w>
en kt</w>
em ents</w>
effe ct</w>
ear t</w>
ear n</w>
e ful</w>
du des</w>
dreh te</w>
docum ent</w>
direc tors</w>
di ert</w>
den k</w>
de termin
dau ern</w>
credi bly</w>
cre dit</w>
conne ct</w>
con sci
ci l</w>
ch tern</w>
ce ed</w>
ca mp</w>
bull shit</w>
br an
bo ttle</w>
bess ere</w>
ben ef
be handelt</w>
be coming</w>
b unker</w>
b ild</w>
b b
au en
attor ney</w>
ari o</w>
ar k</w>
ange griffen</w>
an gle</w>
an getan</w>
an do</w>
al ous</w>
advan tage</w>
ac u
ac tive</w>
ab and
a tive</w>
a tionen</w>
a de
Z entr
Z anu
Wür dest</w>
Woh l</w>
Woh in</w>
War tet</w>
War ten</w>
W under</w>
W ert</w>
Ver mu
Unterstü tzung</w>
Unter suchung</w>
U Ba
Tr ust</w>
Terr ell</w>
T rä
T olle</w>
T ER</w>
Sü ße</w>
Swe et</w>
Strate gie</w>
St ell</w>
Sp en
Sie g</w>
Sicher heits
Sen ator</w>
Schla f</w>
Sch wer
Sch mit
Sch i
S ou
S E
Respe kt</w>
R un</w>
R onnie</w>
R oll
Pfer d</w>
P R
Olymp ics</w>
Neu manns</w>
N ic
Mü he</w>
M itte</w>
Li ben
L äch
L IN
Krie ges</w>
Kom muni
J en
Ital ian</w>
I var</w>
Hä tte</w>
Ho wd</w>
Hil f</w>
Her aus
Harv ey</w>
Ha wai
Ha ar
H um
H om
Gesell schaft</w>
G ä
G EN</w>
Fre unden</w>
Fre m
F le
E is</w>
E hem
E he
Deut schen</w>
Des wegen</w>
Dar auf</w>
Da ch
Col onel</w>
Co ach</w>
Clu b</w>
Cha os</w>
C op
Bet ra
Bernade tte</w>
Bei de</w>
Ba de
B jarke</w>
B ert</w>
B ed</w>
An son</w>
A very</w>
A U
4 7</w>
19 9
über winden</w>
über legt</w>
ü bel</w>
äl ter</w>
zu lassen</w>
zi p</w>
zer o</w>
zeich nen</w>
z ur
z lich</w>
wä rs</w>
wh eres</w>
wh enever</w>
wel cher</w>
wech sel</w>
wea ther</w>
w ich</w>
w asser</w>
verwir rt</w>
verur sa
verha ftet</w>
verdamm ten</w>
ver ste
ver ge
ver age</w>
us hi
unter halten</w>
um gebracht</w>
ulti ma
tr on
th red</w>
ter m</w>
te i</w>
t ank</w>
success ful</w>
st op
st a</w>
spe c
sp ac
sin king</w>
sh ing</w>
schick te</w>
sch lug</w>
samm elt</w>
sa mer</w>
s wea
s in</w>
ru de</w>
rou te</w>
ro t</w>
ridicul ous</w>
ri ghts</w>
ri ding</w>
resc ue</w>
rema ining</w>
rei s
re mind</w>
re gre
re fle
re efs</w>
ra in</w>
r ely</w>
press ed</w>
pre pare</w>
poten tial</w>
por a</w>
pi te</w>
pe z</w>
p iss</w>
over come</w>
on er</w>
on e
ol er
ob li
na men</w>
mi eren</w>
ma tion</w>
ma in</w>
ma il</w>
ma cher</w>
lo ses</w>
li ste</w>
le tt</w>
le ben
lang wei
l auf
kör per
kompli ziert</w>
kno wledge</w>
kennen gelernt</w>
ken n
ka tion</w>
k ür
k al
ja p
inter net</w>
inten se</w>
in ju
in fe
in credibly</w>
ich ter</w>
i zi
i pe</w>
i or</w>
hundre ds</w>
hun ting</w>
ho ok</w>
ho ffen</w>
hel ipe</w>
hea ding</w>
gy m
gu es</w>
gre en</w>
gra b
go b
gh ty</w>
gesam ten</w>
gehei m</w>
ge z
ge habt</w>
ge gessen</w>
g ol
g ie
fä llig</w>
fä hig</w>
fre sh</w>
for med</w>
far kt</w>
fanta stic</w>
fahr ungen</w>
f rank</w>
f a</w>
es sed</w>
er wachsen</w>
en g</w>
ell ed</w>
einzi gen</w>
ein geladen</w>
eigen es</w>
ei le</w>
e chten</w>
dro ve</w>
divor ce</w>
dis covered</w>
dig ging</w>
di e
di an</w>
den ten</w>
d ouble</w>
d in</w>
d icht</w>
cre ating</w>
coun tries</w>
cor rect</w>
convin ce</w>
come dy</w>
ci an</w>
char ity</w>
cent ury</w>
can di
c les</w>
bo ar
bl ed</w>
ba cks</w>
ba c
b lin
as i</w>
app o
ans wers</w>
amerikani schen</w>
a kti
Zei tung</w>
Zei ch
Za hn
Wahr scheinlich</w>
Vort eil</w>
Ver stehe</w>
Valentin stag</w>
V enti
V an</w>
Un il
Tim ing</w>
Theor ie</w>
Th r
Th er
Tab ito</w>
Su k</w>
Stre et</w>
Ste ph
So chi</w>
Sh h</w>
Schrei b
Schmer zen</w>
Schla f
Sch wei
Sa me</w>
Sa m
S oh
S ir
S imp
Rö hre</w>
Publi c</w>
Poli zi
P helipe</w>
O scars</w>
Mü ll</w>
Mö chtest</w>
Medi ka
M esser</w>
M E
Lu bos</w>
Le gion</w>
L ad
L E
Kon zept</w>
Kol legen</w>
Ka mer
K lei
K ha
Je ff
I K
Heraus for
H R
Gu thred</w>
Glei che</w>
Glau ben</w>
Geset z</w>
Ge gend</w>
Gar age</w>
Gal ra
FÜ R</w>
Fil me
Fi ck</w>
F our</w>
F lei
F antas
F A
Erzä hl</w>
Ein wan
Da bei</w>
D O
Ch u
Car men</w>
C in
Bullet Point</w>
Bri ten</w>
Br and
Bar ton</w>
Asi an</w>
Ab stand</w>
A tom
1 10</w>
1 000</w>
1 00000</w>
überprü fen</w>
ä t
zu frieden</w>
z one</w>
wri tten</w>
wir k
we t</w>
w olf</w>
w ehr
verl or</w>
ver traut</w>
ver mitt
ver folgt</w>
ven ge</w>
v eira</w>
v ance</w>
us sion</w>
un gs</w>
um in
trä gst</w>
tre ss</w>
to sh
ti gte</w>
ti ere</w>
ther ing</w>
th at
terrestri al</w>
te ch</w>
tar get</w>
tan zen</w>
ta stro
t ons</w>
t ollen</w>
swe etie</w>
suff er</w>
su n</w>
stol en</w>
stha ft</w>
sta dt</w>
st one</w>
st le</w>
st ein</w>
spra che</w>
sp y</w>
some ones</w>
sol chen</w>
so cial</w>
sk ey</w>
sk et
sin n
sil ly</w>
schul d</w>
schie ßen</w>
schar f</w>
scha u</w>
sch önen</w>
sch aut</w>
sa fety</w>
rou gh
roman tic</w>
respon se</w>
rel ated</w>
re t
re fu
provi de</w>
prom o
pro test</w>
pp en
possi bility</w>
po gra
po cket</w>
pla ys</w>
pho to</w>
parti cular</w>
parano id</w>
pa y
p ills</w>
p ie</w>
p et
oll y</w>
offi ziell</w>
o gra
no chmal</w>
möglich en</w>
must ve</w>
mov ement</w>
mo tiv
mo sp
mo fu
mitt ag</w>
man age</w>
ma in
lern te</w>
lei tet</w>
le man</w>
konzentri ert</w>
komple tt</w>
ko sten</w>
k Ã</w>
k lop
k le
jo y</w>
ir es</w>
int ment</w>
in deed</w>
ig keit</w>
i en
hus bands</w>
ho st</w>
hin aus</w>
high ly</w>
high est</w>
hal es</w>
ha tt
h ü
gy m</w>
grei ft</w>
go ti
gleich zeitig</w>
gi es</w>
gh ten
gesch ichte</w>
ger ichtet</w>
gener ator</w>
gen der</w>
geh örte</w>
ge ord
ge ar</w>
g la
fre und
film ma
fil me</w>
ff eln</w>
fe sti
fai th</w>
f end</w>
es see</w>
es h</w>
eph one</w>
entfer nen</w>
enn essee</w>
ema il</w>
em in
el li
ear ed</w>
du le</w>
do s</w>
diesel be</w>
di a
deci sions</w>
d or</w>
d ol
cou rage</w>
co cks</w>
cli ent</w>
cke ez</w>
ci als</w>
caus ed</w>
can cer</w>
c ow</w>
bu tt</w>
brin gst</w>
blei bst</w>
bewa hren</w>
beteili gt</w>
besie gen</w>
beha vior</w>
be mer
ba be</w>
b ol
aust vik</w>
at men</w>
arti st</w>
and ing</w>
an geneh
aff air</w>
abhän gig</w>
Zu fall</w>
Z e
Y o</w>
Wurm loch</w>
Wo von</w>
Wissenschaft ler</w>
Wi der
W ol
Vil mas</w>
Ver halten</w>
V ik
Tra iner</w>
Ton y</w>
Ton gue</w>
Toi lette</w>
Thru sters</w>
Tel udav</w>
Ta p</w>
T oll
T ennessee</w>
T O
St ei
Sport ler</w>
Sp rin
So tsch
Shi mofu
Sex handel</w>
Scra tch</w>
Schla cht</w>
Sch wert</w>
Safe way</w>
Sa tosh
S zen
S et</w>
S eiten</w>
Roose velt</w>
Risi ko</w>
Ri o</w>
Rau m
Pre sse</w>
Per ry</w>
Palad in</w>
P ho
P er</w>
P ear
P at
Os car</w>
Oli veira</w>
Off ic
Oba ma</w>
O ut</w>
Ne w
Naz i</w>
Na vy</w>
N ehmen</w>
N austvik</w>
N ase</w>
Män nern</w>
Mer ry</w>
Man hatt
Ma kes</w>
Lo ch</w>
Lin ie</w>
Lei tung</w>
Le e
LIN 28
L ong</w>
Ku chen</w>
Korallen blei
Kl ein
Kat ze</w>
K ill
Jon as</w>
Jap aner</w>
Hu stons</w>
He f
Hawai i</w>
H ir
H aufen</w>
H als</w>
H alley</w>
Gir l</w>
Gent lemen</w>
Gener ator</w>
Gener ation</w>
Gele genheit</w>
Ge ben</w>
G old</w>
For get</w>
Fol ge</w>
Flu gob
Fei er
Fa hrt</w>
F an</w>
Exc ellent</w>
Eri k</w>
Er n
Er inn
Er fahrungen</w>
En gel</w>
EI N</w>
Do g
Din ner</w>
Di rec
Dar ren</w>
Chapp elle</w>
Can a
Brock hart</w>
Bol ton</w>
Ba k
B all</w>
B ER
Außer irdi
Auf trag</w>
Arbei ten</w>
Arbei t
App arently</w>
An gri
Al though</w>
Al li
Al ko
Al b
A ca
A P</w>
19 3
ür zt</w>
öp ft</w>
ö ße</w>
ö st
ä lt</w>
zu halten</w>
za hl</w>
yn dee</w>
x ing</w>
wä lti
wo für</w>
will en</w>
wi l
wi esen</w>
wen ige</w>
wei te</w>
w r
vor ne</w>
visi ble</w>
va ter</w>
v et</w>
v ement</w>
v eling</w>
ur ine</w>
un glaub
um ber</w>
u ti
tu red</w>
tt ed</w>
trä ge</w>
tri bu
tremend ous</w>
tre es</w>
th um
t ab
sü chtig</w>
stän de</w>
strei ten</w>
stir bt</w>
spe ctive</w>
ska u</w>
si tze</w>
si ty</w>
shoul ders</w>
sho wn</w>
sh or
set ze</w>
set ting</w>
seh t</w>
sco ffs</w>
scho ck
schle chter</w>
sche dule</w>
sch rank</w>
sch me
sch end</w>
sc aultrite</w>
s an
russi sche</w>
ru iniert</w>
ro o
rema in</w>
rei se</w>
re sult</w>
re presenting</w>
re cover</w>
rac ie</w>
qu asi</w>
qu a
produ ction</w>
pri de</w>
pri ate</w>
pp ers</w>
pp el
po st
pl us</w>
pa ges</w>
pa ck</w>
p yrami
p ure</w>
p se</w>
p ole</w>
p ier</w>
p at
or n</w>
or dered</w>
oppo site</w>
on ie</w>
na st</w>
n ur
mo dern</w>
mitt el
mit gebracht</w>
mir ror</w>
min ation</w>
mensch liche</w>
medi zin
me aning</w>
mark et</w>
mar ry</w>
läch erlich</w>
lon ely</w>
lli ant</w>
lie bst</w>
li ere</w>
lea ves</w>
lea ding</w>
le bst</w>
kü ssen</w>
kop f</w>
konta kti
klin gen</w>
kl ären</w>
ki o</w>
k ter</w>
k lasse</w>
je doch</w>
ja gen</w>
it d</w>
in ti
in o</w>
in ge</w>
il lu
il le</w>
i des</w>
ho ws</w>
ho sts</w>
heal thy</w>
ha ted</w>
gro wn</w>
gr en
glich e</w>
geh end</w>
geb or
ge wählt</w>
ge samt</w>
ga tions</w>
g ü
g nen</w>
for ms</w>
fl at</w>
fet ch</w>
fer ence</w>
feh len</w>
fe deral</w>
fas zin
fan t
f ung</w>
f illed</w>
f eld</w>
exp ert</w>
every ones</w>
essen tially</w>
es day</w>
erlau bt</w>
entde ckt</w>
ent weder</w>
ent führt</w>
emp his</w>
ein ig</w>
ein gesperrt</w>
eh ouse</w>
eben falls</w>
ear ned</w>
e ens</w>
drü ckt</w>
dr is</w>
down stairs</w>
do gs</w>
disappoin ted</w>
da tes</w>
da ta</w>
cro wd</w>
cra cy</w>
cor rec
cor ner</w>
confi dence</w>
compe te</w>
commer cial</w>
ck ten</w>
c tory</w>
c ers</w>
bra chten</w>
br icht</w>
bi te</w>
bi a</w>
betr unken</w>
berü hren</w>
bel ow</w>
bel ong</w>
begei stert</w>
beantwor ten</w>
be ster</w>
be dro
ba u</w>
b nis</w>
b lich</w>
b aut</w>
auf geregt</w>
au ty</w>
atta cked</w>
ass ault</w>
archite cture</w>
ar med</w>
ar m
ans wer
anno un
ann ten</w>
amerikani sche</w>
al ert</w>
ad ded</w>
ab sur
ab holen</w>
a ter</w>
a ges</w>
Zi vili
X an</w>
Wissen schaft</w>
Win ter</w>
W ald</w>
Ver trag</w>
US As</w>
UN D</w>
Th ir
T äter</w>
T ea
T H
T E</w>
Stu denten</w>
Stu art</w>
Sta at</w>
Sotsch i</w>
Soll frank</w>
So fort</w>
Schein bar</w>
Sch win
Sch reck
Sch ne
ST IM
S pre
S onne</w>
S na
S ep
Rei ch</w>
Re d
R eal</w>
Pu ll</w>
Poli ce</w>
Po st</w>
Po si
Plä ne</w>
Pear l</w>
Ob viously</w>
Na tion</w>
Na than</w>
Mu t
Mo skau</w>
Mar co</w>
Ma ß
M ust</w>
M emphis</w>
M I
Lü gen</w>
Loo king</w>
Lee kie</w>
L es
Ko stü
Ken nst</w>
Kas dan</w>
K uss</w>
K ul
Je wish</w>
J ung
In telligence</w>
In spi
I dris</w>
Har ry</w>
Han cocks</w>
Gol d
Ge walt</w>
G rü
G racie</w>
G ina</w>
Fro he</w>
Fra g</w>
Fo undation</w>
Flori da</w>
Fern seh
Fern ando</w>
F it</w>
F ig
Ex per
Er d
Ehem ann</w>
E he</w>
Dunk el
Du mm
Du ke</w>
Den kst</w>
De fin
De cke</w>
Dat eien</w>
Da me</w>
Cre w</w>
Chi ca
Che ers</w>
Cent ral</w>
C yndee</w>
C ops</w>
C oo
C ir
Bür ger
Blei ben</w>
Beru hi
Bel tr
Beh ör
Bas is</w>
Arti kel</w>
Andre ws</w>
An geles</w>
An führer</w>
Al ways</w>
A kti
1 5
1 4
zö si
zu lernen</w>
zin farkt</w>
z z</w>
z em</w>
your selves</w>
wo von</w>
wi schen
war f</w>
w u
vie ws</w>
vi a</w>
vermu tlich</w>
verhin dern</w>
ver bringen</w>
ver bess
ushi har
ushihar a</w>
unter nehmen</w>
under stood</w>
un det</w>
tre ffe</w>
tra iner</w>
tou gh
togra fi
ti ming</w>
te en</w>
t elef
stür zt</w>
stre ets</w>
sto ppen</w>
sta yed</w>
st yle</w>
speci ally</w>
sp lit</w>
sor ge</w>
some thin</w>
soll tet</w>
sol ved</w>
ses sion</w>
sequen ces</w>
sea ts</w>
schu he</w>
schrei bt</w>
schrei be</w>
sch wei
sch wach</w>
sch st</w>
sch ir
sa ck</w>
s or</w>
s at</w>
s and
ru hi
rom anti
rich tung</w>
rele vant</w>
recor ds</w>
re sul
re sources</w>
re s
re presen
re mem
re g
r ush</w>
pul ling</w>
psych ologi
propo s</w>
pro paganda</w>
pre ssi
per mission</w>
pas sen
p on
p fen</w>
p ent
oper ator</w>
olo gie</w>
ol er</w>
od d</w>
no w
nig ga</w>
nieman dem</w>
nie der</w>
ni ghts</w>
neu er</w>
ness es</w>
ne st</w>
ne goti
mö chtest</w>
mura i</w>
mur dered</w>
mo tor
mil ar</w>
me an
mar k</w>
m ung</w>
m our</w>
lo ws</w>
lo ser</w>
lo sen</w>
lo ad</w>
li ber
li ar</w>
lei det</w>
lei chter</w>
lea k</w>
las st</w>
la chen</w>
l on</w>
l ern</w>
l ause</w>
klär ung</w>
kid na
ket ball</w>
kar te</w>
k ehr
k an</w>
jump ing</w>
jud ges</w>
jo king</w>
j er
invest ig
inst in
indi vidu
ier ung</w>
hr es</w>
h te</w>
go s</w>
gl asses</w>
gl as</w>
gh o
get au
geni us</w>
gelei tet</w>
ge ändert</w>
ge zeichnet</w>
ge worfen</w>
g sten</w>
g n</w>
g ment</w>
fle et</w>
fil tra
fi ghter</w>
f ought</w>
ex ist
ett i</w>
erzä hle</w>
ersch ossen</w>
er hö
er funden</w>
er ei</w>
equi pment</w>
ep iso
entwick eln</w>
engin e
embarr assing</w>
ein sam</w>
eas ily</w>
e urer</w>
din nen</w>
deta ils</w>
dau er
da durch</w>
curr ent</w>
cru ise</w>
cro ss</w>
cr as
countr y
con y</w>
con fir
con du
comm and</w>
collea gue</w>
col or</w>
co inci
co at</w>
clo wn</w>
ch s
celebra te</w>
cab in</w>
c ash</w>
bu dget</w>
bo ther</w>
blau en</w>
bla ck
bir d</w>
bestä tigen</w>
berü hm
bed room</w>
be frei
be am</w>
bar rier</w>
ban burg</w>
ba dly</w>
b right</w>
b banburg</w>
aufge wachsen</w>
ats ächlich</w>
assh ole</w>
argu ment</w>
appro priate</w>
app lause</w>
app ears</w>
an geb
ali sten</w>
al tet</w>
ad vance</w>
ab geschlossen</w>
Zwe ck</w>
Zeh n
Z ig
Z iel
Yo shi
Y u</w>
Woo sung</w>
Willi am</w>
Wer bung</w>
W inter
W ein
Ver stand</w>
Ver gewal
Venti lator</w>
V om</w>
V en
Ur ushihara</w>
Uh huh</w>
U M</w>
T ests</w>
T atsächlich</w>
Stra ßen
Sto pp</w>
Spe zi
Shimofu ji</w>
Secre tary</w>
Scher z</w>
Sch utz</w>
Scar ell
Satosh i</w>
S ci
Russi ans</w>
Rus sen</w>
Priv at
Poli tik</w>
Pl us</w>
Person al</w>
Perfe kt</w>
Perfe ct</w>
Per sön
P rü
P ort
Offic er</w>
O ld</w>
O hh</w>
Nig ga</w>
Naz is</w>
Mut ko</w>
Mus kel
Mur tau
Mon day</w>
Mist kerl</w>
Min er</w>
Milli ar
Mi am
Ma teri
Ma king</w>
M ent
Lu x
Liben a</w>
Le anne</w>
L ust</w>
Kü hl
Kä mp
Kre bs</w>
Korallenblei che</w>
Koordin aten</w>
Kin d
Jo y
Ja me
J in
Irgend wann</w>
Inspi ration</w>
Ima gine</w>
Her zinfarkt</w>
Hem d</w>
Hef ele</w>
H ang</w>
Gitar re</w>
G ary</w>
Freun dinnen</w>
Freu de</w>
Flag gen</w>
Fir men
Fin ger
Fantas ie</w>
Famili en</w>
F unktion
F rie
F abri
Erei g
E specially</w>
E mo
E cke</w>
Do c</w>
Direc tor</w>
Dien st
Dat en
Cross Fit</w>
Cour t</w>
Com mitt
Co de</w>
Chan cen</w>
Champ ag
Cha ra
Ch ri
Ca mp
C over</w>
C ome
C lin
C aliforni
C E
Bom be</w>
Bo on
Bla ir</w>
Bet ter</w>
Bes u
Beltr án</w>
Be stes</w>
Be sten</w>
Be bbanburg</w>
Bal mera</w>
B it
B ald</w>
B O
Augen blick</w>
Auf nahmen</w>
Atlan tic</w>
Ar no
Al ler
A th
A ir
1 60</w>
zu letzt</w>
y ton</w>
wri ter</w>
wieder sehen</w>
whisp ering</w>
wa ited</w>
wa hren</w>
wa ck
w es
vor an</w>
verb unden</w>
ver sprochen</w>
ver mei
ver bracht</w>
ur teilen</w>
up s</w>
ung sk
un ge
um zu
um t</w>
ulti mate</w>
ul f</w>
tz ten</w>
tu be</w>
tu b</w>
tru g</w>
tou ched</w>
to p
to ols</w>
thro wing</w>
the ory</w>
ter ms</w>
tem ber</w>
tele vision</w>
ta pe</w>
t to</w>
t i</w>
swi tch</w>
sur ro
stür zen</w>
stri ke</w>
stri ct</w>
star ke</w>
st or</w>
st eu
ss y</w>
spiel er</w>
sp rang</w>
so gen
sin ni
sin gen</w>
si milar</w>
sho pping</w>
sha ke</w>
sh u
set z</w>
set tle</w>
ser va
ser ies</w>
sel ten</w>
sear ching</w>
screa ms</w>
schü tt
schlä ft</w>
sa men</w>
s well</w>
s ungen</w>
s ale</w>
rü stung</w>
räu men</w>
ry l</w>
ru hen</w>
ro s</w>
ro oms</w>
rev eal</w>
remem ber
rela x</w>
rei ßen</w>
recogni ze</w>
rea giert</w>
re move</w>
re l</w>
r or
r as
probi eren</w>
pp arat</w>
poli tical</w>
po wers</w>
po sed</w>
perfe kte</w>
pati ent</w>
par ties</w>
p ussy</w>
p son</w>
p ert</w>
op ens</w>
offen bar</w>
oc cas
oc c
o ber
no tes</w>
ni es</w>
ni ck
nen ne</w>
n utzt</w>
mo on</w>
mm ern</w>
mm ed</w>
man che</w>
mach ung</w>
ma ßen</w>
ma tes</w>
lü gt</w>
lo ssen
lei te</w>
lei hen</w>
langwei lig</w>
l ess
kümm ere</w>
kennen zulernen</w>
k ehr</w>
jähri ge</w>
ju ice</w>
jen ige</w>
je alous</w>
j is</w>
is s
irgend welche</w>
interess an
inter rupt</w>
indu stry</w>
in je
ima ges</w>
il ing</w>
hä u
ho pe
hi elten</w>
her vor
hal be</w>
ha med</w>
h ous
gre ssive</w>
good bye</w>
ght ful</w>
gewin ne</w>
gent ur</w>
gehei men</w>
ge testet</w>
ge ber</w>
ga do</w>
g in</w>
g ged</w>
fu el</w>
free dom</w>
for men</w>
flo g</w>
fla g</w>
ff er</w>
fer n
fass bar</w>
fac tory</w>
f s</w>
extre m</w>
expe cting</w>
eu rem</w>
et own</w>
erwä hnt</w>
ersch öpft</w>
ep tion</w>
entschuldi ge</w>
entschei den
enti ert</w>
end us</w>
ein gestellt</w>
eg gs</w>
ea u</w>
dr über</w>
dr en
disc us
dis gu
dies mal</w>
deut ung</w>
de my</w>
dar unter</w>
d ungs
d ry</w>
d re</w>
d ank</w>
cover s</w>
consi dered</w>
con clu
co ach</w>
ck ta
chea p</w>
che ese</w>
che cking</w>
ch ief</w>
ch et</w>
c oll
brin gs</w>
bestä tigt</w>
belie ves</w>
be zwei
be ge
bal cony</w>
back ground</w>
avo id</w>
at uren</w>
as u</w>
as sure</w>
as soci
arbei test</w>
appo intment</w>
ann ehmen</w>
ann ed</w>
an de</w>
ali zed</w>
al terna
ab gel
ab end</w>
a ti
a he</w>
a ck
Zu häl
Zentr um</w>
Zanu ck</w>
Z ir
Z er
Wen igstens</w>
Vor stand</w>
V ö
V oll
Tri ck</w>
To p</w>
Thom pson</w>
Ta xi</w>
T ext</w>
T endus</w>
T V
T ER
Sun day</w>
Stimm ung</w>
Staats an
St ab
Spiel e</w>
Sp an
Shir ley</w>
Shepher ds</w>
Sep tember</w>
Sen ate</w>
Se con
Schmer z</w>
Sch mu
Sch l
Sch ande</w>
STIM ME</w>
S po
Ru hm</w>
Ro yal</w>
Rea dy</w>
Prof essor</w>
Prin zip</w>
Polizi sten</w>
Poli zei
Par a
Papi er
P ic
O z</w>
Nie der
Na h</w>
NY PD</w>
N umber</w>
N iemals</w>
Mit glieder</w>
Mas sen
Mann ing</w>
Manhatt an</w>
Land es</w>
LIN28 A</w>
L en
Krie ger</w>
Kre di
Korallen ri
Kal ab
K nö
K lo</w>
K G
K A
Jo se
Jahr zeh
Ja g
In to</w>
In st
Il lu
I hres</w>
Han ah</w>
Hal te</w>
Ha ving</w>
H at
Gu ter</w>
Gu ck</w>
Gr as</w>
Go ds</w>
Get rän
Geschä fts
Ger ech
Gen e</w>
Ge win
Ge bie
Früh stück</w>
Fri day</w>
Fran k
Fr on
Fo tze</w>
Filme macher</w>
Fer rer</w>
F el
F S
Ein druck</w>
E du
Dur nings</w>
Dar ryl</w>
Dar an</w>
D rei
Chica go</w>
Char lie</w>
Chan tal</w>
Cas ey</w>
C ut</w>
C er
Bo dy
Blo od</w>
Bl y
Bi o
Be weis</w>
Be deutung</w>
B y
B unker</w>
B and</w>
Aus rüstung</w>
Au ßer</w>
Arno ld</w>
An zeigen</w>
Afri ka</w>
Aca demy</w>
AL L
A venue</w>
A unt</w>
7 5</w>
20 16</w>
ó pez</w>
äng sti
zwei fel
zen tr
yo unger</w>
y in</w>
wü sste</w>
wo anders</w>
wer t
wel chen</w>
w ulf</w>
w ins</w>
w elt</w>
vor her
vo ted</w>
verstän dlich</w>
verschie denen</w>
verk auf
verdamm te</w>
ver wenden</w>
ver gewal
ver flu
ver ar
v ul
v es
unterstü tzt</w>
uni verse</w>
ungs los</w>
under nea
undernea th</w>
un ts</w>
un it</w>
un ding</w>
un cle</w>
um bringen</w>
u ten
tz chen</w>
ty pic
tt ert</w>
tro tz</w>
trin ke</w>
tre ated</w>
tran sition</w>
to es</w>
tion ing</w>
th i
th ea
th an
ten de</w>
tempor ary</w>
tar o</w>
t wen
t us</w>
t one</w>
t ent</w>
su mmer</w>
su e</w>
su chte</w>
su b</w>
sto ck</w>
sti schen</w>
stau rants</w>
sta ys</w>
sta mmt</w>
st um
st off
st ent</w>
spar en</w>
spa zieren</w>
sp u
sp ring</w>
sp rich
soldi er</w>
soci ety</w>
so ft</w>
smoo th</w>
slo w
sle pt</w>
sion en</w>
sig ns</w>
si ts</w>
sh olen</w>
sh e
sequen zen</w>
secre cy</w>
schwar z</w>
schein end</w>
scha fts
scha den</w>
sch were</w>
sag es</w>
sa tt</w>
s ca
ro ten</w>
rie cht</w>
repor ts</w>
repar iert</w>
repar ieren</w>
rele ased</w>
rech ts</w>
re chten</w>
ra tes</w>
r ole</w>
r ie</w>
pro jects</w>
presiden ts</w>
prakti sch</w>
pra y</w>
po ta
po st</w>
physi cally</w>
pf lich
perfe ctly</w>
per cent</w>
pent ine</w>
part ners</w>
par a
pa int</w>
our n
or ing</w>
op tion</w>
offic ers</w>
o il</w>
nu ll</w>
nee d
ne ten</w>
na cht</w>
mo chte</w>
mi x</w>
mi rac
mi er
mi cro
me etings</w>
me as
län gst</w>
loo se</w>
lo ver</w>
lo an</w>
lie st</w>
li ge</w>
lea der
le bens
land ing</w>
la ting</w>
la dung</w>
kontrol lieren</w>
kauf te</w>
k at
k aner</w>
jump ed</w>
it ys</w>
inclu de</w>
in vi
in sur
il er</w>
identifi zieren</w>
i scher</w>
i gt</w>
hö flich</w>
hy pothe
hur ts</w>
hu mili
hol es</w>
hol ds</w>
ho wever</w>
hn te</w>
hil frei
ha ir
h la
gu ide</w>
groß ar
gro aning</w>
gn ügen</w>
gi l</w>
getr ennt</w>
get eilt</w>
geh eim
gefä hr</w>
geb ung</w>
geb lieben</w>
gar den</w>
g ste</w>
g ant</w>
funktion ieren</w>
for dern</w>
for d</w>
for ces</w>
foo ting</w>
fin ger</w>
fi cent</w>
fas st</w>
fan ge</w>
famili es</w>
fal se</w>
f tige</w>
f es</w>
ex hau
et wegen</w>
es ung</w>
erfolgrei ch</w>
er leben</w>
ep y</w>
elimin iert</w>
el wulf</w>
einfa cher</w>
eil ung</w>
dren al
do pp
din and</w>
di ger</w>
de stru
de pri
dar aus</w>
d ka</w>
d den</w>
cri ed</w>
cre atures</w>
cou ch</w>
coordin ates</w>
con troll
con stantly</w>
co il</w>
cle ars</w>
cla im</w>
chuck ling</w>
challen ging</w>
ch em</w>
ch ase</w>
c tic
c ry</w>
c ook</w>
c ca</w>
buil dings</w>
bri lliant</w>
bre ch
br ary</w>
bi ke</w>
besch rei
ben den</w>
be weist</w>
be u
be stra
be auty</w>
be ast</w>
ba hn</w>
b y
b ong</w>
b ill</w>
autom a
auf passen</w>
atta ched</w>
ar ticle</w>
ani k</w>
an gesehen</w>
an ger</w>
an ci
am ong</w>
al er</w>
accompli ce</w>
a o</w>
Zeu gen</w>
Z ä
Yoshi taro</w>
Wür den</w>
Wä hla
Win kel</w>
Wer den</w>
Wa chst
Vizeprä sidentin</w>
Vide o
Vermu tlich</w>
Venezu ela</w>
V ier</w>
Tur ner</w>
Tro tzdem</w>
Trin ken</w>
Tri mble</w>
Thom as</w>
Th eir</w>
T üren</w>
T en</w>
T ausende</w>
T E
Sti mmen</w>
St ol
Son der
Sol che</w>
Sol ange</w>
Simp son</w>
Set zen</w>
Sen dung</w>
Se ems</w>
Se curity</w>
Schw ein</w>
Schla g
Sch lä
Sch e
Sa gt</w>
Rach els</w>
R ela
R assi
Pri ssy</w>
Paul ie</w>
Par tei</w>
Pa pa</w>
P am</w>
Origin al</w>
Olymp ischen</w>
O ce
Nat ur
Na hrung</w>
N ik
N ie</w>
N SA</w>
N F
N E
Möglich keiten</w>
Mä del</w>
Mus eum</w>
Mor d
Mon t
Mom my</w>
Moder atoren</w>
Mitt el</w>
Miam i</w>
Mel lett</w>
Materi alien</w>
Mar shall</w>
Mann es</w>
Man a
M al
Lor ra
Li ght</w>
Leich ta
L ópez</w>
Kul tur</w>
Kon sequenzen</w>
Kletter er</w>
Kha ti
Ken ne
K uh</w>
K au
K ate</w>
Ju gend
Jin bong</w>
J or
J an
I dio
I Im</w>
I AD
Hunder te</w>
Hoch zeit</w>
Ho t
Hinder nis
Herausfor derung</w>
Har bor</w>
Hamm ersch
Ha ar</w>
H ou
H ose</w>
H ope</w>
H olo
Gra y
Gleich gewicht</w>
Get ting</w>
Gerech tigkeit</w>
Ger mans</w>
Ge fan
Gar rison</w>
G T
Fri tz</w>
Fr ont</w>
Fortschri tte</w>
Flo ki</w>
Fi z
Fer dinand</w>
Far be</w>
F unk
F ire</w>
F ind</w>
F iel
Ergeb nis</w>
En ough</w>
El ba</w>
Ein fach</w>
E x</w>
Dunkel heit</w>
Dokum ent</w>
Dach au</w>
D er
D ER
D A
Cur ti</w>
Con gressman</w>
Committ ee</w>
Com p
Chu ck</w>
Californi a</w>
Ca chet</w>
Brie f
Brea the</w>
Br on
Bo y</w>
Bla de</w>
Bis her</w>
Beson ders</w>
Bes ides</w>
Ber eit</w>
Behand lung</w>
Begin n</w>
Bal k
B M
Arbei ts
An hör
Al te
Al ber
Al Khati
Aff äre</w>
Adri an</w>
AN D</w>
A nast
A kio</w>
A dre
3 6</w>
3 0
1 50</w>
öff entlich</w>
è re</w>
äu fer</w>
zu machen</w>
zu hören</w>
zeich nete</w>
z weiter</w>
z ellen</w>
y elling</w>
wün sche</w>
wä r</w>
wra p</w>
wor auf</w>
win gs</w>
war ri
war ehouse</w>
wa ter
wa che</w>
vor hin</w>
vi eren</w>
vertei digen</w>
verli ere</w>
ver wendet</w>
ver treten</w>
ver däch
un heimlich</w>
u ell</w>
traff ic</w>
tou ching</w>
to te</w>
ti z</w>
threat ened</w>
tel le
ta p</w>
t ts</w>
t liche</w>
sy rup</w>
swi m</w>
supp ly</w>
su gar</w>
sti mu
sti mme</w>
ster ili
ste te</w>
ste me</w>
ss y
spü re</w>
sprich st</w>
sp ort
sp annt</w>
so weit</w>
so c
sme tics</w>
sli pped</w>
simp ly</w>
sich ert</w>
sich ern</w>
sho w
sho ts</w>
sel fish</w>
sei en</w>
se u
schön es</w>
schwier iger</w>
schrei en</w>
scha de</w>
sch m
sch ien</w>
sc are</w>
sa tis
sa ft</w>
risk ieren</w>
repor ted</w>
rein kommen</w>
rei che</w>
regu lar</w>
re turning</w>
ra y</w>
r unde</w>
r de</w>
pus hing</w>
punk ten</w>
prote ction</w>
pri l</w>
poli tics</w>
poli cy</w>
po und</w>
per c
pa cken</w>
p ä
p ig</w>
p icking</w>
ou ts</w>
or ado</w>
olu tion
off ering</w>
ob vious</w>
ob ject</w>
nit ten</w>
ne k</w>
ne ben
nat ür
n ut</w>
n ommen</w>
n annte</w>
mä ßig</w>
mon sters</w>
mon itor</w>
mo stly</w>
mo di
mit genommen</w>
mista kes</w>
mis er
min d
mer s</w>
mel de</w>
ma id</w>
m äd
lo ving</w>
lo g</w>
le gte</w>
las en</w>
kümm ert</w>
klett ert</w>
kennen lernen</w>
kapi ert</w>
k ne
k icked</w>
k espe
k auft</w>
j unger</w>
it i</w>
introdu ce</w>
inter pre
ins gesamt</w>
infor miert</w>
in tegri
ik er</w>
identi ty</w>
ici de</w>
hä re</w>
hybri d</w>
hon estly</w>
ho ben</w>
hl ten</w>
hil fst</w>
hier her
he ftig</w>
har dly</w>
hand some</w>
hal ben</w>
h un</w>
h mt</w>
h ers</w>
guarante e</w>
grow th</w>
grav ity</w>
gr au
gni ficent</w>
glaub te</w>
gl ing</w>
gh ters</w>
gez wungen</w>
gewi sse</w>
gest ürzt</w>
gesch nitten</w>
gel s</w>
ge wusst</w>
ge meldet</w>
g un
fä hig
fun er
fro zen</w>
for gotten</w>
fl icht</w>
fin ger
fi cally</w>
fa te</w>
f tly</w>
f tigen</w>
f at</w>
f are</w>
extra terrestrial</w>
existi ert</w>
ex it</w>
est ing</w>
erzi elt</w>
ent in</w>
ele v
el der
eiß er</w>
ein ander
eben so</w>
e fully</w>
e e
durch gemacht</w>
du ty</w>
drü cke</w>
dro pping</w>
document ary</w>
di sh</w>
di gte</w>
desper ate</w>
den a</w>
deli cious</w>
de vice</w>
de va
da hinter</w>
d ün
d ü
d ust</w>
d lichen</w>
d ge
cor e</w>
consi dering</w>
conqu er</w>
conf used</w>
con sequences</w>
comp eting</w>
committ ed</w>
colle ct</w>
classi fied</w>
ck ey</w>
ck ers</w>
che cked</w>
champ agne</w>
ch y</w>
ch est</w>
ch est
cele bri
cap ture</w>
can c
c up</w>
c ans</w>
br and
bo ats</w>
bli cken</w>
berü hrt</w>
beg rei
beg leiten</w>
beeindruck end</w>
be stimmen</w>
be auf
bar s</w>
ba i</w>
b elt</w>
b ell</w>
aw k
aus gehen</w>
auf gehört</w>
assi stant</w>
as sign
as hamed</w>
arti sts</w>
ar ily</w>
app arently</w>
ani c</w>
an tly</w>
an stren
aller dings</w>
aliforni en</w>
al arm</w>
agre ement</w>
ad mi
ack no
ac tiv
a ma</w>
Zwei fel</w>
Zu stimmung</w>
Z wischen
Y ears</w>
Wähla pparat</w>
Won der
Wo zu</w>
Who o</w>
Wer k</w>
Welt krieg</w>
W ü
Vor sicht</w>
Vi et
Ver gnügen</w>
V an
Tru ppen</w>
Tra peze</w>
Tr ying</w>
To yo
Tha t
Th ought</w>
Tat sache</w>
Tal ent</w>
T un
T ren
T est</w>
T emper
Sy mp
Stu hl</w>
St ory</w>
Spi der
Sin ne</w>
Sher iff</w>
Sha kespe
Sea ttle</w>
Scot land</w>
Schei dung</w>
Sch wä
Sch na
SER IE</w>
S ö
S ä
S on</w>
S eh
Ran ger</w>
Ra che</w>
R y
R ig
R en
Pyrami de</w>
Plan et</w>
Pl ötzlich</w>
Pati enten</w>
P anik</w>
Organ i
O w</w>
Net z</w>
Nation al
N ord
Mö chten</w>
Mmm hmm</w>
Mit glied</w>
Mini ster</w>
Mi ke</w>
Mex ican</w>
Medi en</w>
Ma mi</w>
Ma ch
M aus</w>
Läch eln</w>
Lieblin g
Li onel</w>
Lei d</w>
Le gende</w>
L B</w>
Könn ten</w>
Kun st
Kli ma
K öp
K oh
K leider</w>
Ir gen
Inst ead</w>
In credible</w>
Ih m</w>
Ho wever</w>
Hammersch midt</w>
H ook</w>
H ome</w>
H ed</w>
Gun dam</w>
Groß mutter</w>
Gren zen</w>
Ger ichts
Gebie t</w>
G ast</w>
Fu cking</w>
Fiz bo</w>
Fil men</w>
Fern sehen</w>
Feli cia</w>
Fac e
Erinner st</w>
Ergeb nisse</w>
Er lau
Ent wick
Elek tro
Ein fluss</w>
E ve</w>
E ste
E l</w>
Dun phy</w>
Du tz
De stin
Dau men</w>
Da zu</w>
D rü
Colum bia</w>
Col orado</w>
Cla yton</w>
Chi p</w>
Che ck</w>
Champag ner</w>
Ch ef
Cast or</w>
Ca tholi
C ohn</w>
C ho
Br ust</w>
Bo tschaft</w>
Bil d
Beson deres</w>
Aw w</w>
As k</w>
Arm strong</w>
Any one</w>
Antwor ten</w>
Ant ar
An trag</w>
An kla
AlKhati b</w>
Ah a</w>
Adre sse</w>
Ab geord
A propos</w>
A pril</w>
5 1</w>
20 12</w>
1 7
0 er</w>
über sehen</w>
über nehme</w>
ã o</w>
zus ä
zurück kommen</w>
zu stimmen</w>
zi erte</w>
zi elle</w>
zeu gen</w>
zei chen</w>
z or
yon c
y o</w>
wür fe</w>
wün schen</w>
wä chst</w>
wissen schaft
wir ft</w>
win ter</w>
win digkeit</w>
wichtig ste</w>
wich tigen</w>
wh om</w>
wh el
wen igen</w>
we ed</w>
was h</w>
wa schen</w>
wa gt</w>
w ound</w>
w ein
vor stell
von le
vonle a</w>
vis ual</w>
ver är
ver ließ</w>
ver an
v eter
ur ing</w>
un comfortable</w>
um ber
u tscht</w>
tu de</w>
tter ing</w>
tter ed</w>
tra pped</w>
tra ined</w>
tra de</w>
tor ia</w>
ti re
ti erte</w>
ti as</w>
threat ening</w>
th es
th eit</w>
tex ts</w>
teri en</w>
tei le</w>
te ur</w>
te sted</w>
tastro p
tal ks</w>
t schen</w>
t oler
sus pi
sur v
suff ering</w>
sud den</w>
su mm
stä blich</w>
stru ggle</w>
stren g</w>
ster o
stan ces</w>
st ören</w>
st ops</w>
st ated</w>
st able</w>
sp rün
sp la
sp er
sor s</w>
so wohl</w>
so wie</w>
sla ve</w>
sin k</w>
sil ence</w>
sich t
si x
si tes</w>
servi ces</w>
ser ving</w>
sel e
secre tary</w>
schön er</w>
schw u
schen k
sch Ã</w>
sch einen</w>
rum bling</w>
ru tsch
ro ws</w>
rin ging</w>
rich ten
ri z
ri sh</w>
ren nen</w>
ren der</w>
remember ed</w>
regre t</w>
recor ding</w>
reci pe</w>
re präsen
re ckt</w>
ra ck</w>
qu ality</w>
pyrami d</w>
pro per</w>
pro je
pro ben</w>
pri son
po ss
photogra ph
pas sion</w>
parti cip
par don</w>
p id</w>
ow ner</w>
ou tta</w>
ou ah
ouah Ng
ouahNg ally</w>
om en
offen sive</w>
ni tt
new spa
net work</w>
nach ts</w>
na m</w>
myster y</w>
mus cle</w>
mur ders</w>
mis ses</w>
mil k</w>
mein s</w>
mana ger</w>
ma th</w>
lin k</w>
lich ste</w>
li van</w>
li mit
les son</w>
len ken</w>
le gend</w>
la test</w>
la ck</w>
l ust</w>
l f</w>
kom muni
kom men
ko v</w>
ko chen</w>
kin da</w>
kay asu</w>
k tionen</w>
k g</w>
jud gment</w>
je wei
ja gt</w>
j ä
j ung
is y</w>
is ol
invi te</w>
inspi ration</w>
in ts</w>
in es
impre ssion</w>
imp act</w>
hy po
hor ses</w>
hor ri
hilfrei ch</w>
her o
har m</w>
hand ed</w>
gu cken</w>
gu ards</w>
grab bed</w>
gra phic</w>
gr o</w>
god damn</w>
gewö hnt</w>
gesp annt</w>
gent eil</w>
gen ü
gen des</w>
gel ten</w>
ge ttin</w>
ge ous</w>
ga cy</w>
g ist</w>
fü gen</w>
fu sion</w>
fin ha</w>
fei er</w>
fant asy</w>
faci li
fa cts</w>
fa cing</w>
f ed</w>
exe cu
ex ten
ex perim
es es</w>
es cap
er freut</w>
ent sch
employ ees</w>
emo tion
elimin ate</w>
electri c</w>
ele gant</w>
eh mt</w>
e ds</w>
e ball</w>
dur fte</w>
drin gend</w>
dra wn</w>
docum ents</w>
disa ster</w>
der jenige</w>
denti al</w>
den s</w>
den noch</w>
dar kness</w>
dan eben</w>
cu be</w>
corpor ate</w>
co a
clo se
cli mate</w>
chu l</w>
ch tes</w>
ch el
car rying</w>
c ali
bur ned</w>
bra ch</w>
br asili
bo un
ble eding</w>
bl ess</w>
billi on</w>
beson dere</w>
beoba chtet</w>
ben ö
bel e
bei gebracht</w>
beeinflus sen</w>
be zwingen</w>
be tro
be side</w>
be handeln</w>
be half</w>
be g</w>
be cca</w>
bab ys</w>
ba gs</w>
b ür
b ine</w>
aufre gend</w>
auf grund</w>
as st</w>
as ing</w>
ar ten</w>
angeneh m</w>
an or</w>
all ed</w>
agen ts</w>
ac tions</w>
ab el
a ms</w>
a irs</w>
Zig ar
Y up</w>
Woo chul</w>
Wo für</w>
Who ever</w>
Wel ches</w>
Weihnachts mann</w>
Wal kers</w>
Wa y
Wa ffen
W ouldnt</w>
W ea
W I
Ver letz
Un believable</w>
Tu esday</w>
Trin k
Tri als</w>
Ton ight</w>
T op
T ac
Sylv ère</w>
Str om
Stol z</w>
St au
Spea king</w>
Spe cial</w>
Sp iegel</w>
Some body</w>
Soh nes</w>
Shakespe are</w>
Sh u
Ser pentine</w>
Secon d</w>
Schwe stern</w>
Schmit t</w>
Schlaf zimmer</w>
Scha fft</w>
Sch wi
Sch lie
Sch le
Sch aden</w>
Scarell i</w>
Sa ys</w>
Rod chen
Rig gs</w>
Rea ktion</w>
Re gen</w>
Re becca</w>
Ra finha</w>
R unter</w>
R ing</w>
Prä sident
Pri ma</w>
Por sche</w>
Palad ine</w>
P eter
Oper ator</w>
Offen sichtlich</w>
O therwise</w>
O kayasu</w>
Ng ouahNgally</w>
Nach mittag</w>
N et</w>
Murtau gh</w>
Mu tter
Mittel punkt</w>
Mitt a
Mini ver</w>
Mill án</w>
Masch ine</w>
Mar kus</w>
Mar ine</w>
Maje st
Ma tias</w>
M ün
M ight</w>
M einer</w>
M au
Lu f
Le u
Land ung</w>
La ven
L y
Kühl schrank</w>
Koo hun</w>
Kom men
Ko livan</w>
Kil ometer</w>
Ke k
K alifornien</w>
Jose phine</w>
Jo ey</w>
Jame el</w>
Jam ie</w>
J ourn
J immy</w>
J ab
In u
In dependent</w>
I D
Hü tte</w>
Holly wood
Heil mittel</w>
Hea thers</w>
Hal tet</w>
H ut</w>
H it</w>
H eißt</w>
Gu il
Gray son</w>
Gr and</w>
Gewi cht</w>
Ger ü
Ge genteil</w>
Fü hrung</w>
Fri ends</w>
Fr auen
For sch
Fla sche</w>
Fei er</w>
Fa iry</w>
Fa hrer</w>
F ür
F alle</w>
Extra ction</w>
Er stens</w>
Ele anor</w>
Ei gent
Edu ardo</w>
Dur ant</w>
Deck ers</w>
De von</w>
Da von</w>
Da esung</w>
D D</w>
Co w
Clo wn</w>
Clin ton</w>
Cle m</w>
Chapp elles</w>
Cal m</w>
CH T</w>
C O
Bul l
Brü ste</w>
Bro thers</w>
Bo w
Bly the</w>
Ber to</w>
Ben zin</w>
Be yonc
Balk on</w>
Bab y
Ba hn
BM W</w>
B ush</w>
B 17</w>
Auf hören</w>
Ant ark
Alko hol</w>
Alfre d</w>
Ah med</w>
A vonlea</w>
A ru
A ne
A gentur</w>
3 5</w>
20 15</w>
ü bt</w>
ör ter</w>
än derungen</w>
Überra sch
Über gang</w>
zz le</w>
zu ge
z ung</w>
z ess</w>
x is</w>
x ie</w>
wu chs</w>
wi d
wel chem</w>
war ning</w>
war ming</w>
wa ve</w>
wa hl</w>
voll es</w>
voll en</w>
viol ent</w>
vi se</w>
verschie dene</w>
vers um</w>
vergewal tigt</w>
ver lan
ver end</w>
ver blei
ver ber
vent ure</w>
ve z</w>
v ous</w>
uni on</w>
un höflich</w>
un expected</w>
umin dest</w>
u tz
tö tet</w>
tru sted</w>
tru cks</w>
tran spor
tra iniert</w>
tra fen</w>
toni ghts</w>
tom s</w>
toll es</w>
tiz ens</w>
ti tude</w>
ti tel</w>
ti p</w>
ti cket</w>
thri ll
th eart</w>
ten e
temper ature</w>
telef on
te bra
t ney</w>
t aus
t all</w>
swi t
su ch
studi ert</w>
stru ggling</w>
stru ggl
sti ge</w>
star ken</w>
star ing</w>
st an</w>
spo ts</w>
spo ken</w>
spin ning</w>
speci es</w>
spe ktive</w>
sp enden</w>
some day</w>
so oner</w>
so dass</w>
sm ann</w>
slow ly</w>
sk i
sil ver</w>
sho wer</w>
sha red</w>
sen ding</w>
seas on</w>
scor es</w>
schna ppen</w>
schlie ßt</w>
schla ge</w>
schie f
schie d
schenk ow</w>
sch auer</w>
s oup</w>
s mu
s l
s eal</w>
s day</w>
rough out</w>
ri se</w>
ri sche</w>
resul ts</w>
re ttet</w>
re ss</w>
re si
re pu
re du
re cken</w>
ra ft</w>
qu em</w>
prä sent
proper ly</w>
progra ms</w>
produ cer</w>
prin ts</w>
pre ten
posi tiv</w>
por tra
popu lar</w>
pla y
person ally</w>
peri od</w>
p us</w>
p ton</w>
p lu
p it
ous ness</w>
ob je
o therwise</w>
no ise</w>
ne m</w>
nach denken</w>
mu tig</w>
mo untain</w>
mm i</w>
mid night</w>
mes sen
medi c
mas si
mar ks</w>
ma sch
m ul
m ouse</w>
lo aded</w>
lie fern</w>
li mit</w>
ler nt</w>
leader ship</w>
l y
l tig</w>
kor e
klär t</w>
kl ein
kl aut</w>
k tions
k rä
k rea
k li
k lang</w>
k ein
jähri gen</w>
jump s</w>
jo kes</w>
jen igen</w>
je denfalls</w>
ja hr</w>
ja hr
it zen</w>
ir r
insur ance</w>
inju red</w>
imp ea
imagin ed</w>
il fe</w>
ick s</w>
ich ert</w>
i P
hör ten</w>
hybri ds</w>
human ity</w>
hor mone</w>
hol y</w>
ho p</w>
he at</w>
hal f
ha tes</w>
h en
gre es</w>
gh ten</w>
gere ch
gerech net</w>
ger icht</w>
ge öffnet</w>
ge wohnt</w>
ge kämpft</w>
ge kriegt</w>
ge klappt</w>
g ne</w>
g ere</w>
fähr st</w>
funer al</w>
frei e</w>
fra me</w>
fortun e</w>
for dert</w>
film making</w>
ff le</w>
ff er
fass ung</w>
f nis</w>
f lä
explo sion</w>
every things</w>
et ro</w>
er seits</w>
er kannte</w>
er kannt</w>
er chen</w>
enti rely</w>
enor mous</w>
enha gen</w>
en sure</w>
en er</w>
en as</w>
el ement</w>
el ang</w>
einzi gar
ein deu
ei gh
ear th</w>
e over</w>
e gh
e do</w>
dum me</w>
dul d</w>
dre ssing</w>
dra matic</w>
divor ced</w>
di sor
deser ves</w>
des pite</w>
den y</w>
dem and</w>
deli ver</w>
deca des</w>
de di
de ck</w>
d ä
d ollar</w>
crea tive</w>
cra cks</w>
coo per
conc ert</w>
con dition</w>
compani es</w>
com ment</w>
com men
com in</w>
com bination</w>
col ate</w>
coinci dence</w>
co ws</w>
co v
ck le</w>
cir cum
ci pa
ca ts</w>
c ells</w>
buil der</w>
brea d</w>
bra ins</w>
bott les</w>
bor ing</w>
bo w
blo cks</w>
blan ket</w>
bir th</w>
bi ologi
bi ert</w>
bezwei fle</w>
betra chtet</w>
bestimm te</w>
beruhi gen</w>
ber ech
benef it</w>
bel ei
bei des</w>
beg ins</w>
be stellt</w>
be eping</w>
ba ge</w>
b ten</w>
authori ties</w>
auf gefallen</w>
as ia</w>
ar me</w>
ange messen</w>
an ten</w>
an genommen</w>
an ern</w>
an bieten</w>
al it
adverti sing</w>
ac cu
absur d</w>
a wake</w>
a tional</w>
a gi
Zä hne</w>
Zu schauer</w>
Zei tschri
Z ü
Z umindest</w>
Y el
Wor um</w>
Wom an</w>
Woh l
Wir kung</w>
War ner</w>
Wa y</w>
W unsch</w>
Vic tory</w>
Vic toria</w>
Ver sion</w>
Ver däch
Ver damm
Ver b
V lad</w>
Tro ttel</w>
Tr auer</w>
Tick ets</w>
Ter minal</w>
Te stoster
Ta ge
T ou
T emp
T I
Sö hne</w>
Sy mbo
Stre ss</w>
Stra ßen</w>
Stra f
Steph en</w>
Sta mm
St ars</w>
Sp in
Sou th
Ser vice</w>
Schwan z</w>
Schu h
Schlimm ste</w>
Schla mpe</w>
Sa vior</w>
Sa murai</w>
S mo
S m
S itz
S ey
Rodchen kov</w>
Rod schenkow</w>
Ro swell</w>
Rela x</w>
Regier ungs
Re präsent
Re e
Rassi smus</w>
Qu eens</w>
Pyrami d</w>
Proz ent</w>
Pro vo
Pro st</w>
Pro jekte</w>
Pro ject</w>
Por tu
Poliz ist</w>
Pi stole</w>
Ph ysi
Park platz</w>
Par don</w>
P ra
Olymp i
Oce an</w>
O H
Ne o</w>
Nach richten
Mon itor</w>
Mom ente</w>
Mod ell</w>
Mo dena</w>
Milliar den</w>
Mid way</w>
Mei ster</w>
Medika mente</w>
Maß nahmen</w>
Mari annes</w>
M ön
M un
M A</w>
Lorra ine</w>
Lieb es</w>
Leichta thle
Lehr er</w>
Lab ors</w>
L ändern</w>
L aufen</w>
Kredi t
Kon kur
KG B</w>
K offer</w>
K eller</w>
Jas per</w>
J ähri
J anu
Ir ving</w>
In stin
Idio ten</w>
Identi tät</w>
IAD G</w>
I k
Hur ri
Hop efully</w>
Hin weis</w>
Heili ge</w>
Groß teil</w>
Go d
Gesch mack</w>
Ge duld</w>
G las</w>
G lad</w>
G ern</w>
Foo tball</w>
Fol gen</w>
Flu g</w>
Fil ms</w>
F un</w>
F ood</w>
F ee</w>
Every things</w>
Erlau bnis</w>
Eri ca</w>
Ereig nisse</w>
Er ster</w>
Ein zel
Ein stellung</w>
E wi
E v
Drin ks</w>
Do ppel
Di re
Di esen</w>
Demokra tie</w>
DI A</w>
D r
Coun ty</w>
Con ne
Cle ar</w>
Chri sti
Car eful</w>
CE O</w>
C umber
Br o</w>
Bo ys</w>
Bes it
Behör den</w>
Befeh le</w>
Bea ch</w>
Be wusst
Be stimmt</w>
Be eilung</w>
B ran
B ess
Az off
Auf tritt</w>
Ar z
Anti Doping
Anhör ung</w>
Anast asia</w>
An zug</w>
An wei
Ama zing</w>
Ac cording</w>
Ab ra
8 00</w>
6 00</w>
19 7
ün stig</w>
ün de</w>
ø rn</w>
äuß erst</w>
zu ver
zu fällig</w>
z man</w>
z ka</w>
z ir
yo ga</w>
wor e</w>
wor an</w>
woh n
wit ness</w>
wie gen</w>
wee theart</w>
we e</w>
wan ting</w>
wa ste</w>
voic eover</w>
visi ting</w>
vie wed</w>
verursa cht</w>
verschwin det</w>
verletz en</w>
verber gen</w>
ver z
ver w
ver ne
ver langen</w>
ver ing</w>
ver g
ven tion</w>
upca ke</w>
unter gang</w>
unk no
uni or</w>
ung spro
un schuldig</w>
un gewöhnlich</w>
un gern</w>
un gefähr</w>
u pper
upper body</w>
tz a
tw at</w>
tra vel
tra p</w>
tr unk</w>
tig ten</w>
tig ste</w>
that ll</w>
ter ror</w>
techni cally</w>
te zo</w>
tastrop he</w>
t um</w>
t oo
t led</w>
syn c</w>
symp toms</w>
suspen ded</w>
sur gery</w>
sub scri
stra te</w>
stop p</w>
ste h</w>
sta ges</w>
st ört</w>
st un
st ic
ssy stem</w>
sp ä
soc cer</w>
snea k</w>
sli pping</w>
sli de</w>
sket ch</w>
sk ins</w>
shi eld</w>
sett led</w>
se ase</w>
scienti sts</w>
schwin gt</w>
schwi mmen</w>
schmu tz
schlä ge</w>
schle chten</w>
schir m</w>
schen ken</w>
schein bar</w>
sch lu
sch l
scen ario</w>
s wal
s ver
s se
ru mp
ro om
ries igen</w>
ri en</w>
repu tation</w>
rei ch
re ve
re turned</w>
re siden
re hear
rau sholen</w>
rac ist</w>
ra dar</w>
pu dding</w>
po t</w>
plan ned</w>
pe ti
p unch</w>
p oo
p on</w>
p her</w>
over whel
ous in</w>
ou te</w>
or p
or able</w>
occ up
ob o</w>
ob by</w>
o unce</w>
nä her
nor th</w>
nie dri
ni fer</w>
ne my</w>
ne ar
nast ics</w>
n in
mü ssten</w>
mäd chen</w>
mo un
mirac le</w>
mes sages</w>
merk würdig</w>
ment ine</w>
ment ary</w>
mensch lichen</w>
mei ste</w>
mar kt</w>
mar ki
ma p</w>
m um</w>
lö st</w>
lei tung</w>
le gacy</w>
land ed</w>
lan den</w>
kön ne</w>
ki es</w>
ken s
ke up</w>
ke ep
ke b
kauf e</w>
k lassi
k ing
k ei
jewei ls</w>
it es</w>
it ation</w>
irgen deine</w>
inter view</w>
influ ence</w>
indu stri
in zwischen</w>
in telle
in si
in cident</w>
impre ssed</w>
ig sten</w>
ier end</w>
ie ved</w>
ide al</w>
hung rig</w>
hope fully</w>
ho t
ho h</w>
hier bleiben</w>
her stellen</w>
hear ts</w>
heal th</w>
hea v
hal t
h men</w>
gym nastics</w>
gu ests</w>
gu eira</w>
gre gation</w>
gr und
gr ou
glau b</w>
gier ig</w>
gho st</w>
gesch ü
gesch aut</w>
ger ät</w>
ger utscht</w>
ger ung</w>
gen u
gel angen</w>
gef asst</w>
ge merkt</w>
ge brauchen</w>
fün f
fr eit</w>
fo tografi
fli ct</w>
fle xi
fin ishing</w>
filtra tion</w>
fas se</w>
fa il</w>
fa hrer</w>
f ishing</w>
f eln</w>
ex change</w>
et ri
et ed</w>
ess es</w>
escap ed</w>
erzä hlst</w>
erle i</w>
erfü llt</w>
er re
er mu
er kennt</w>
er fuhr</w>
episo de</w>
entschei det</w>
ema ils</w>
elder man</w>
el ly</w>
ein zel
ein bar
ea th</w>
e te</w>
e ase</w>
drän gt</w>
disc re
disc lo
direc tion</w>
di stur
di sease</w>
di os</w>
di eren</w>
di en</w>
devel op</w>
determin ed</w>
deta il</w>
desig ning</w>
de fea
de cent</w>
dau ghters</w>
d ner</w>
d i</w>
d eh
d d</w>
cy cle</w>
custom ers</w>
cra tic</w>
cra ck</w>
confir med</w>
conc ent
con tribu
con spi
con di
comple x</w>
com pla
collea gues</w>
colle ction</w>
col la
co ck</w>
civili zation</w>
ci o</w>
ci ans</w>
cho sen</w>
ch ern</w>
ch eating</w>
care fully</w>
buch stäblich</w>
bro ok</w>
bor row</w>
blö de</w>
blo ck
bestimm ten</w>
berü hmt</w>
berei ch</w>
ben en</w>
bel n</w>
beg rü
be sucht</w>
be freit</w>
be ds</w>
bar es</w>
ba stard</w>
b on</w>
b bit</w>
b be</w>
b an</w>
avo i
außer halb</w>
aus geschieden</w>
auf gegeben</w>
au st</w>
au spro
at sch</w>
assign ment</w>
as sed</w>
as pe
as is</w>
ar zt</w>
ar ies</w>
ar gue</w>
any e</w>
and ed</w>
an greifen</w>
an cy</w>
an ces</w>
all t</w>
ali l</w>
ali ge</w>
al tes</w>
al t
al e
ac tress</w>
ac ted</w>
ac ke</w>
ac as</w>
a ß</w>
a va
a unt</w>
a gency</w>
Za ck</w>
Z ur</w>
Wy lers</w>
Wie der</w>
Wh e
West brook</w>
Wes sex</w>
We st</w>
Way ne</w>
WAD A
W rong</w>
Vor würfe</w>
Vier tel</w>
Ver stehst</w>
Ver lust</w>
Ver gessen</w>
V ice</w>
V eld</w>
Unter titel</w>
Uni versum</w>
Uni versity</w>
Un sinn</w>
UBa hn</w>
U bal
Trä nen</w>
Tru e</w>
Tro tz</w>
Tri cky</w>
Tol and</w>
They d</w>
Th under
Tau je
T rei
Sus ans</w>
Su tezo</w>
Stu dent</w>
Stor m</w>
Steu er
St örung</w>
St ein</w>
Spider Man</w>
Spa Ã</w>
Soll te</w>
Sol dat</w>
Si re</w>
Schul ter</w>
Schri ft
Schreib tisch</w>
Schrei ben</w>
Schlie ßlich</w>
Schla g</w>
Schei be</w>
Sch ool</w>
Sch ild</w>
Sch auen</w>
Sas u
Sand ra</w>
Sa id</w>
S än
S tru
S ny
Ru fen</w>
Ro bo
Ri p</w>
Republi kaner</w>
R on</w>
R oll</w>
Qu elle</w>
Proto k
Pro je
Prin z</w>
Pre viously</w>
Plä tze</w>
Pfer de</w>
Pal ast</w>
P illen</w>
P A
Oze an</w>
Or te</w>
O wen</w>
O ut
No gueira</w>
Ner ven
Nachbar n</w>
N either</w>
Mäd els</w>
Mon d</w>
Mi tter
Men del
Mei ster
Majest ät</w>
M oo
M auer</w>
M ale</w>
Lie bes
Li ed</w>
Letz tes</w>
Lehr erin</w>
Le ck</w>
Lager tha</w>
LA PD</w>
L ä
L ac
Krist alle</w>
Kommen tar</w>
Kir as</w>
Kind heit</w>
Kenne dy</w>
K im
K anye</w>
Jen nifer</w>
Je denfalls</w>
Ja h
J on</w>
J im</w>
J alil</w>
Ital y</w>
Ital ien</w>
Inter view</w>
In nen
In dia</w>
Imp er
IK E
I m
Holo cau
Hinter grund</w>
Heim at</w>
Hea d</w>
Ha g
H ild</w>
H O
Gu zman</w>
Gre ek</w>
Ga mes</w>
G s</w>
G or
Frü her</w>
Fol gendes</w>
Flu cht</w>
Feh l
Fa ir
Fa ch
F ru
F itz
Ex plo
Ex perim
Er kenn
Ein satz</w>
Ein mal</w>
E t
E nemy</w>
E gil</w>
Dunk eln</w>
Dun can</w>
Dre h</w>
Dop ing</w>
Deutsch lands</w>
Deut sche</w>
Destin y</w>
Desig n
De fen
D onn
Com ing</w>
Co s
Co p</w>
Cle mentine</w>
C hal
C au
C at
Bü ro
Brin gt</w>
Brin gen</w>
Bri tain</w>
Boon ark</w>
Bon us</w>
Bom ben
Bo wer</w>
Bj ørn</w>
Beyonc é</w>
Beruhi ge</w>
Beru f</w>
Bel ieve</w>
Befeh l</w>
Beast s</w>
Be wohner</w>
Be ck</w>
B är</w>
B auch</w>
Au tor
Au str
Ath let</w>
At men</w>
Assi st
Aru ba</w>
Archite ktur</w>
Anru fe</w>
Ane zka</w>
An lage</w>
An gele
An aly
Ab teilung</w>
AT I
A kte</w>
9 11</w>
4 0
20 10</w>
über wälti
über nimmt</w>
über geben</w>
ü ben</w>
ä her
Über wach
zü glich</w>
zz a</w>
zurück kehren</w>
zurück gelassen</w>
z zy</w>
z ert</w>
z ar
x er</w>
wä sche</w>
wus stest</w>
work out</w>
woh ne</w>
woh l
win zi
win d
wichtig sten</w>
whe el</w>
weiter es</w>
wei ße</w>
wa ffen</w>
w ette</w>
w esen</w>
vö geln</w>
vor gestellt</w>
vis or</w>
vi ctory</w>
verzei hen</w>
vertrau e</w>
vermis sen</w>
vermis se</w>
vermei den</w>
verlan gt</w>
ver sagt</w>
ver pflich
ver passen</w>
ver lo
ver dien
ven th</w>
vehic le</w>
va gina</w>
v s</w>
v est</w>
us eless</w>
ur ge</w>
up beat</w>
unter suchen</w>
unkno wn</w>
under water</w>
un usual</w>
un sub</w>
un ruhi
un believable</w>
un abhängig</w>
um gehen</w>
u ty</w>
tz er</w>
ty pen</w>
tu elle</w>
trol s</w>
trin kst</w>
tran sport</w>
tra di
ton gue</w>
to ward</w>
to ten</w>
ti re</w>
ti l
th rea
th r
th ger
thger tha</w>
testi fy</w>
ter n
ter ia</w>
tel ephone</w>
tea ms</w>
te stoster
te gra
te gor
t äu
t our
t ool</w>
t es
symbo li
swi mming</w>
su it
su chten</w>
stu me</w>
stri kes</w>
stra hl
stell ungen</w>
ste aling</w>
sta ke</w>
ss lich</w>
ss er
spann end</w>
sp read</w>
sp an
some things</w>
so ftly</w>
sm ells</w>
sk in
sk ill</w>
sinni g</w>
sin ger</w>
si ghing</w>
shoul der</w>
sha king</w>
sh er
sent ence</w>
sel ber</w>
scienti fic</w>
schä tzt</w>
schu tz
schu le</w>
schreck liche</w>
schme ckt</w>
schlä gt</w>
schick t</w>
sch utz</w>
sa il
sa chen</w>
sa b
s lands</w>
s ar
roll ing</w>
ro tary</w>
rin a</w>
respon d</w>
requi re</w>
repor ter</w>
refu se</w>
ref used</w>
rea gi
raus zu
ra ted</w>
ra ped</w>
ra pe</w>
ra cy</w>
r ys</w>
r und</w>
r out
quo te</w>
proper ty</w>
press ing</w>
presiden cy</w>
presen ce</w>
pp te</w>
popu lation</w>
poli ti
pois oned</w>
pois on</w>
ph in</w>
ph en
per work</w>
pati ents</w>
pal ace</w>
p ted</w>
p ly</w>
p it</w>
ou verne
orp han</w>
orig in
on en
olo gist</w>
offi cially</w>
oc cur
nor mally</w>
nit ure</w>
night m
nightm are</w>
n de</w>
mp ed</w>
mor al</w>
mom s</w>
mili tä
mil li
mi ral</w>
mes sed</w>
manipu liert</w>
m Ã</w>
m ass</w>
lu d</w>
lo k
lin ed</w>
lich erweise</w>
le gi
l un
l ese</w>
kämp fte</w>
kra m</w>
keep er</w>
ka mst</w>
ka mp
k öst
k oo
k m</w>
k heit</w>
jour n
ja cket</w>
j ah</w>
it ten</w>
is hi
ishi ma</w>
is ela</w>
irgend einem</w>
inter national</w>
inten si
individu al</w>
in y</w>
in dependent</w>
impre ss</w>
immig rants</w>
ima ge</w>
ill o</w>
il box</w>
ignor iert</w>
ide l</w>
ic es</w>
iP ad</w>
i sches</w>
i ere</w>
hö her</w>
hum or</w>
hr en
hous es</w>
hosp it
hor n</w>
hol m</w>
ho pes</w>
ho hen</w>
heu tige</w>
her ein
heav ily</w>
har d
ha us
h ells</w>
guil t</w>
gro wn
gro ss</w>
glück lichen</w>
gh tly</w>
getr unken</w>
gesch ei
ger issen</w>
ger aten</w>
gelö scht</w>
gelie fert</w>
gehei me</w>
gef r
ge wä
ge scha
ge m</w>
ge kostet</w>
gan nen</w>
ga ge</w>
g ster</w>
fur niture</w>
fu ll
frü h
fri sch</w>
fr au
fortun ate</w>
foo t
fer tig
fail ing</w>
fa ir
fa ils</w>
f isch</w>
f ein
exist ence</w>
exc lu
es c
esc ort</w>
ern s</w>
er tragen</w>
er sta
er fährt</w>
equ al</w>
entr ance</w>
enti al</w>
enter ed</w>
ent y
ent steht</w>
emp fin
emo tions</w>
em pa
elev ator</w>
el ig</w>
el ds</w>
effe cts</w>
dür fte</w>
dru ck
dri ll</w>
dri ll
dra ma</w>
differ ently</w>
dien ces</w>
di sch</w>
di rect</w>
di ci
dete ctive</w>
der selben</w>
defea ted</w>
deca de</w>
de grees</w>
de bt</w>
dan cer</w>
d n
d ler</w>
d ged</w>
curi ous</w>
cro w
cro ssed</w>
cre epy</w>
cre ature</w>
cover ing</w>
con trols</w>
con flict</w>
con firm</w>
con ference</w>
communi cate</w>
com bat</w>
col m</w>
co w
co stume</w>
co in</w>
clo sing</w>
cle an
ci gar
cho colate</w>
char ging</w>
char ged</w>
ch tete</w>
ch sten</w>
candi date</w>
camp us</w>
ca stle</w>
c tional</w>
c t
c able</w>
bu ll</w>
bru tal</w>
brea ks</w>
br ush</w>
br ei
boo bs</w>
bo thering</w>
bo dy
blö den</w>
blo ws</w>
blei b</w>
ble w</w>
blau e</w>
bla de</w>
betra chten</w>
beson deren</w>
besie gt</w>
bein ahe</w>
beeindru ckt</w>
be te</w>
be sitzt</w>
be quem</w>
be kämpfen</w>
be have</w>
be gannen</w>
be feh
be denkt</w>
be ach</w>
bau ten</w>
bas ketball</w>
back wards</w>
b um</w>
awk ward</w>
aus sagen</w>
auf tau
auf nahme</w>
au dio</w>
at man</w>
ass ist</w>
as h
archite ct</w>
ander em</w>
an ziehen</w>
an tun</w>
an griff</w>
am in</w>
alo g</w>
al bern</w>
accep ted</w>
a do
a chten</w>
a cht
Zu satz
Zei gen</w>
Z y
Z wan
Z ehen</w>
Y ates</w>
Y an
Wus stest</w>
Wom ack</w>
Woll t</w>
Wh enever</w>
Wer be
War st</w>
Wachst um
W ont</w>
W irst</w>
W em</w>
Vor wärts</w>
Vor schlag</w>
Ver änderungen</w>
Uni versi
Tru cks</w>
Th ank
Technolo gien</w>
Tat ort</w>
Tan z</w>
Südkor e
Symbo l</w>
Sti l</w>
Ste h</w>
St ich</w>
St ange</w>
St an
Spiel er</w>
Som mer</w>
So zi
Sh ouldnt</w>
Selbst vertrauen</w>
Schw ein
Schlüs sel
Sch uss</w>
Sa mo
S wi
S ong</w>
S ki
Rück kehr</w>
Ri ff</w>
Res er
Rei ch
Regisse ure</w>
Rech ts
Re gen
Ran gers</w>
R oh
R US
Qu atsch</w>
Produ kt</w>
Pre sse
Poli tiker</w>
Pin gu
Ph ilosoph
Para gra
Papi ere</w>
Palad ins</w>
P ound</w>
P ilo
P hase</w>
P S</w>
P RO
OH N</w>
O hren</w>
O U</w>
No bodys</w>
Neu e</w>
N ehmt</w>
N ac
Musi k
Mu ster</w>
Mor ishima</w>
Mor de</w>
Mon ica</w>
Mit arbeiter</w>
Mis s
Mik ro
Me tho
Me er</w>
Mat ra
Mal colm</w>
Mach ine</w>
Ma gen</w>
M ea
Lo ck
Li ber
Le wi
Le gen</w>
Laven der</w>
Lauf e</w>
Las se</w>
La thgertha</w>
L än
Kon zent
Kompli zen</w>
Kom ö
Kom mst</w>
Kom m
Kar en</w>
K now</w>
K nast</w>
K enn
K ell
Ju den</w>
Jab ba
J S</w>
Inv esti
Interess ant</w>
Interess an
I rina</w>
I R
I M</w>
I D</w>
Hä user</w>
Hy pothe
Hum or</w>
Hol en</w>
Ha u</w>
H örst</w>
H ier
H eu
H ear</w>
H ass</w>
Guil her
Grün de</w>
Grand pa</w>
Gr öße</w>
Goo gle</w>
Go tta</w>
Gir ls</w>
Gesch le
Ger ade</w>
Gen ie</w>
Gem äl
Gebur t</w>
Ge bt</w>
G y
G us</w>
G ouverne
G isela</w>
G A
Fri s
Fre sse</w>
For give</w>
For ds</w>
Flei sch</w>
Feuer wehr
Fanta stisch</w>
Fahr zeug</w>
Fa kten</w>
FS B</w>
F idel</w>
Er war
Er klärung</w>
Entschuldi gt</w>
Engli sch</w>
En ger</w>
Ehe frau</w>
EMa ils</w>
E h</w>
E asy</w>
E F
Dreh buch</w>
Do wn</w>
Deta il</w>
Dep uty</w>
Dar t</w>
Da isy</w>
D einen</w>
D ates</w>
D V
Cor pus</w>
Coo per</w>
Comp any</w>
Col le
Co oler</w>
Chi ang</w>
Champ ion</w>
Catholi c</w>
Capr as</w>
C lear
C enter</w>
C K
Bö se</w>
Bu il
Bu dget</w>
Bro wn</w>
Bro o
Bra dy
Blö d
Blu men</w>
Bl ase</w>
Bj orn</w>
Bet rü
Ber ü
Beh ind</w>
Be er
B ou
B I
Azoff s</w>
Au th
Assist entin</w>
Ar th
Ar ent</w>
Alli ierten</w>
Aller dings</w>
Alb traum</w>
Ak tion</w>
Ab ends</w>
A ye</w>
A sche</w>
A ra
A men</w>
9 00</w>
6 2</w>
4 8</w>
2 7</w>
1 70</w>
1 50000</w>
1 20</w>
überzeu gt</w>
überra schen</w>
überprü ft</w>
ä us
Är zte</w>
zä hlen</w>
zwin gt</w>
zwei felt</w>
zus etzen</w>
zu sagen</w>
zeh n
za ki</w>
y u
y d</w>
y att
yatt a</w>
x y
x on</w>
x en</w>
x e</w>
wür digen</w>
wri ters</w>
wr ence</w>
wor t</w>
wor m</w>
wom it</w>
wo unds</w>
wo ckeez</w>
win zig</w>
wi es</w>
wher ever</w>
wei ss</w>
weh tun</w>
weg zu
wech seln</w>
war nen</w>
wa king</w>
w na</w>
w hat
w ells</w>
vul ner
vor über</w>
voic es</w>
vil la
vermu te</w>
vergi ftet</w>
verbess ern</w>
ver t</w>
ver schaffen</w>
ver nor</w>
ver mas
ver lei
ver geben</w>
ver eint</w>
van in</w>
val ue</w>
v ill
us ses</w>
unk ie</w>
uni versity</w>
u mp
u gly</w>
tur m</w>
tur ing</w>
tt etown</w>
tro cken</w>
tran sp
tra veling</w>
tra gi
tra dition</w>
toni o</w>
to x
ti vi
ti er
the or
th roughout</w>
testoster one</w>
ter ed</w>
ten se</w>
ten dlich</w>
tal ent</w>
ta x</w>
t ü
t dem</w>
t ask</w>
suspi cious</w>
survi ved</w>
sur face</w>
sun set</w>
suc ceed</w>
sub way</w>
su ck</w>
su chst</w>
stän dige</w>
strea m</w>
stran gers</w>
stra ted</w>
steu ern</w>
ster be</w>
ste chen</w>
stat us</w>
star ten</w>
sta at
st om</w>
st ates</w>
spi ri
soli d</w>
sich ten</w>
sho cked</w>
sho ck</w>
sha dow</w>
sel y</w>
sei tig</w>
se c</w>
scor ed</w>
schwer en</w>
schn ell
schmer zen</w>
sch rä
sch rieben</w>
sch lei
sch icke</w>
sch er
sch ein</w>
sal es</w>
sacrifi ce</w>
sa tions</w>
sa tionen</w>
s can</w>
s and</w>
rü cken</w>
rä chen</w>
ro se</w>
ro l</w>
rie b
rich tiger</w>
ri ko</w>
respe cted</w>
rec ru
rec ke</w>
real m</w>
re venge</w>
re tire
re act</w>
ra ising</w>
ra d</w>
r ten</w>
r ell</w>
qu er
pun ched</w>
proto type</w>
prote cting</w>
pre su
poli tisch</w>
pol y
po ster</w>
plan ts</w>
pis sed</w>
pi ano</w>
photogra ph</w>
per sons</w>
pe da</w>
part ments</w>
pa ttern</w>
pa gan
pa ckt</w>
p st</w>
p rie
p imp
p im</w>
p hr
p hase</w>
p el</w>
ord entlich</w>
or es</w>
op tions</w>
op ol
oo h</w>
on de</w>
on age</w>
on able</w>
om ery</w>
ol o</w>
offi cials</w>
ob ses
ob i</w>
o zaki</w>
non sense</w>
no twen
ne ys</w>
nach zu
na p</w>
na ked</w>
na ckt</w>
n ette</w>
mäch tig</w>
mp ol
mor gens</w>
mit ment</w>
mit kommen</w>
miser able</w>
min ds</w>
mi tiz</w>
mi th
mi ght
men sion
mem ories</w>
mein ten</w>
medic ine</w>
me d
me asure</w>
man u
man ent</w>
man der</w>
m sen</w>
m eal</w>
m alt</w>
lü gst</w>
lu x
lin ge</w>
lin g
lich ten</w>
li brary</w>
len es</w>
le m</w>
las sen
lan zen</w>
l ungs
l ord</w>
kü ste</w>
kü sst</w>
kur zen</w>
kontrol liert</w>
kle tter
k ünst
k tes</w>
jo int</w>
jo ined</w>
j it
inv ented</w>
inter rup
ini ti
ing le</w>
in jury</w>
in en
imm t</w>
imm st</w>
ili tät</w>
i o</w>
i eht</w>
i ed</w>
hu g</w>
ho o</w>
hn chen</w>
hl er</w>
hin der
hi d</w>
hea ven</w>
he ck</w>
hand led</w>
h unt</w>
h ome
gän ge</w>
gu ins</w>
grou ps</w>
gro Ã</w>
gro cer
gra tis</w>
gra m</w>
gra du
go tt</w>
gl ory</w>
ghten ed</w>
gent leman</w>
gel i
gek ehrt</w>
gefähr det</w>
geb ü
ge setz
ge op
g ust</w>
g omery</w>
g ates</w>
führ erin</w>
fü hre</w>
fu hren</w>
fru it</w>
friend ship</w>
friend ly</w>
fri ed</w>
fri dge</w>
fri c</w>
fre m
for cement</w>
flä che</w>
fir ma</w>
ff st</w>
fashi on</w>
f unk
f ted</w>
f s
f os</w>
extre me</w>
expla ined</w>
experi ences</w>
expe c
exhau sted</w>
exc ellent</w>
ex press</w>
ess our
ess a</w>
ersch einen</w>
erlau ben</w>
er wachsen
environ ment</w>
ena ger</w>
employ ee</w>
ell en
el fric</w>
ein gesetzt</w>
ein fl
effe ctive</w>
econom y</w>
e well</w>
e go
e c
dro w
dri ven</w>
dri fting</w>
dre he</w>
dr unde</w>
dr auf
dopp elt</w>
do zen</w>
do or
do kum
disgu sting</w>
disclo sure</w>
disappoin ting</w>
disapp eared</w>
dici ary</w>
di stri
di er</w>
develop ment</w>
destru ction</w>
desig nen</w>
des ire</w>
des ert</w>
demo cracy</w>
deli a</w>
deep ly</w>
de z
da ily</w>
da ds</w>
d ney</w>
d ale
dale cio</w>
cur tain</w>
cu tting</w>
crea m</w>
coun ts</w>
coun cil</w>
cor ds</w>
convin ced</w>
continu ed</w>
con test</w>
com par
com fort</w>
co unter</w>
co l</w>
close st</w>
cli p</w>
ckta ils</w>
ci tizens</w>
ci ties</w>
ci se</w>
champ ion
ch ines
ch ers</w>
can e</w>
ca b</w>
c upcakes</w>
c tic</w>
c on</w>
c las
c lar
c el
c als</w>
bur ning</w>
bro wn</w>
brea thing</w>
brau chten</w>
br ennt</w>
br and</w>
bo wling</w>
bla dder</w>
bl a</w>
betro gen</w>
bess eren</w>
besch uldi
bes essen</w>
ber e
belon gs</w>
bel a
behaup tet</w>
bedro ht</w>
be z
be merkt</w>
be kann
be gun</w>
b rief</w>
b ond</w>
b at
b al</w>
ava il
ausge sucht</w>
aus ch</w>
aufge wacht</w>
ass aul
as se
as pora</w>
as ide</w>
approa ched</w>
app ear
ano va</w>
angeh euert</w>
and elt</w>
an zusehen</w>
an en</w>
an dal</w>
am ine</w>
am bi
alle gations</w>
ali ke</w>
ak a</w>
ag ent</w>
affe cted</w>
ac y</w>
ac id</w>
aband oned</w>
ab nehmen</w>
ab gesehen</w>
a war
a verage</w>
a da
Zu stand</w>
Zeich nung</w>
Zeh n</w>
Ze peda</w>
Za mitiz</w>
Z will
Yu riko</w>
Yan is</w>
Y et</w>
Wur de</w>
Wor ten</w>
Wor auf</w>
Wonder ful</w>
Willi ams</w>
Wet ter</w>
Werk zeuge</w>
Wel cher</w>
We b
Wal ter</w>
Wa ke</w>
Wa ise</w>
W erte</w>
W an
Vor sprung</w>
Viet nam</w>
Vi sion</w>
Vertei digung</w>
Vertei dig
Verk auf</w>
Ver tebra
Ver suche</w>
Va gina</w>
V it
Unter haltung</w>
Ubal da</w>
U s</w>
U rin
U p
U hoh</w>
U bbe</w>
U V</w>
U T
U K
Tu ch
Tu be</w>
Tran s
To dd</w>
Thank s
Th ea
Testoster on</w>
Ta ten</w>
Ta mp
Ta ft</w>
T ür
T us
T our
T ina</w>
Südkore aner</w>
Sy dney</w>
Sur pri
Stu pid</w>
Stu dios</w>
Str and</w>
Stimm ts</w>
Sti pen
Ste wart</w>
Ste vanin</w>
Sta tion</w>
St eht</w>
Sp ann
Sonnen untergang</w>
Sig nal</w>
Shin obi</w>
Shi ozaki</w>
Sha wna</w>
Selbst mor
Schul tern</w>
Schauspiel er</w>
Sch lei
Sch ar
Scar pim</w>
Sa mm
Sa gte</w>
S qu
S T</w>
Rück zug</w>
Ret terin</w>
Rei fen</w>
Re verend</w>
Ra ya</w>
Ra iner</w>
RE G
R ac
Qu ite</w>
Prä sen
Pri ya</w>
Po s
Phili p</w>
Person en</w>
Pen tag
Park our</w>
Paragra f</w>
Par ty
PR Ä
P ussy</w>
P rom
P il
P flicht</w>
P ass
Op a</w>
Ober körper</w>
O sten</w>
Nor malerweise</w>
No v
Net fli
Ne ben
Nach t
Na zi
NF L</w>
N as
Mö ge</w>
Musi ker</w>
Mu ch</w>
Moo dy</w>
Mont gomery</w>
Mo tto</w>
Mil ton</w>
Mexik aner</w>
Menschen handel</w>
Mendel ow</w>
Me dia</w>
Me an
Mar a</w>
Ma jor</w>
Ma chst</w>
M um
M ir
M einen</w>
Lü gner</w>
Lou ise</w>
Lie fer
Le ktion</w>
Lat in
Lang sam</w>
Land smann</w>
Lad ys</w>
La wrence</w>
L änder</w>
L yn
L icht
L ER</w>
Könn test</w>
Ku bus</w>
Kra m</w>
Kore aner</w>
Korallenri ffe</w>
Kom a</w>
Ken yatta</w>
Ken nen</w>
Kek se</w>
Kar to
Ka tastrophe</w>
Ka bel</w>
K räfte</w>
K off
K ill</w>
Joy ce</w>
Jabba wockeez</w>
J ä
J ones</w>
J obs</w>
Ir r
Ir an</w>
In formation</w>
In dalecio</w>
Hybri den</w>
Holocau st</w>
Holly woods</w>
Hit lers</w>
Hin ter</w>
High school</w>
Hi story</w>
Herr je</w>
Hel ga</w>
Har old</w>
Hal f</w>
H unde</w>
Guilher me</w>
Gren ze</w>
Gre er</w>
Gr un
Gouverne ur</w>
Gleich stand</w>
Glau b</w>
Ges am
Gen ug</w>
Geheim haltung</w>
Ge gner</w>
Ge gen</w>
Gar ber</w>
Ga st
G ö
Fün f
Frie d
Frei tag</w>
For ces</w>
Flag ge</w>
Fl int</w>
Fitz patri
Fit ness
Fi sche</w>
Fa hren</w>
F ur
F es
Erinner ungen</w>
Erinn ert</w>
Ent weder</w>
Ener gie
En drunde</w>
En d
Emp ire</w>
Emm a</w>
Ele c
Ein ladung</w>
Ei ther</w>
Die go</w>
Di aspora</w>
Defin itely</w>
Defen se</w>
D as
D Day</w>
Cor delia</w>
Christi an</w>
Chi v
Chi ef</w>
Charlo ttetown</w>
Charlo tte</w>
Ch ev
Cas anova</w>
Car acas</w>
Ca y
C ort
C lose</w>
Bu d
Bu chst
Brie fe</w>
Brand on</w>
Bou lev
Blöd sinn</w>
Bl um
Bezieh ungen</w>
Bess eres</w>
Besit zer</w>
Ber ater</w>
Be autiful</w>
Ba tter
B EN</w>
Aw esome</w>
Arth ur</w>
Anwäl tin</w>
Anwäl te</w>
Anwei sungen</w>
Ankla ge</w>
An zeige</w>
An tonio</w>
An d
An blick</w>
Ama ya</w>
Alex ander</w>
Agen ten</w>
Ad miral</w>
Ab machung</w>
A g
A f
A eth
A elfric</w>
A ct</w>
A bt</w>
A B
A A
6 th</w>
200 1</w>
2 6</w>
ür t</w>
über s</w>
äus ch</w>
á vez</w>
zwan g</w>
zu tage</w>
zu ständig</w>
zi ere</w>
zeich nungen</w>
wunder volle</w>
wunder schön</w>
wor thy</w>
wonder ed</w>
woh nst</w>
wick elt</w>
wi ped</w>
whi skey</w>
whe el
wer te</w>
welt weit</w>
wei r
wech selt</w>
was ser
war ned</w>
war n</w>
w esen
wesen heit</w>
vö l
viol ence</w>
veröffent lichen</w>
versu chst</w>
versu ch</w>
versch wand</w>
vern ichten</w>
verlo bt</w>
verg isst</w>
verbin den</w>
verar schen</w>
verab schieden</w>
ver st
ver lässt</w>
ver boten</w>
vehic les</w>
v ität</w>
v eau</w>
v ari
under wear</w>
un recht</w>
un ny</w>
ul ly</w>
u si
tz liche</w>
tt o
tt en
tsch utz
tri ffst</w>
tri cky</w>
tre ating</w>
to pi
to on</w>
ti mel
the ma
th ick</w>
th ful</w>
te dly</w>
tal ented</w>
ta sche</w>
ta il</w>
t less</w>
t ans</w>
symbo l</w>
sy steme</w>
surpri sing</w>
suff ered</w>
subscri bers</w>
su its</w>
su icide</w>
studi os</w>
studi eren</w>
stru ktur</w>
stron gest</w>
stimm ts</w>
sti k</w>
stea dy</w>
sta ment</w>
sta hl</w>
st eam</w>
sp rü
sp ell</w>
sp ann</w>
some time</w>
sol ch</w>
so il</w>
so called</w>
sk on
sig ni
sicher er</w>
sich ts
si tz</w>
si dential</w>
shoo ter</w>
sh ys</w>
sh out</w>
sh ou
ser vation</w>
sen de</w>
se qu
schwin gen</w>
schwei gen</w>
schri ft</w>
sch ten</w>
sch erweise</w>
sch em</w>
samm lung</w>
sal ad</w>
sa mes</w>
s weetheart</w>
rü ckt</w>
ru g</w>
ro wed</w>
ro ads</w>
retire ment</w>
requi red</w>
reli gi
regar ding</w>
recor ded</w>
rea gieren</w>
re thre
re i</w>
re gel
re en</w>
re dete</w>
re chte</w>
re action</w>
radi ation</w>
ra ts</w>
ra h</w>
r te</w>
quali fiziert</w>
pur ple</w>
provi ded</w>
proto col</w>
prom ises</w>
prof its</w>
pro secu
pro ce
prie st</w>
pri ck</w>
presen ts</w>
pre mi
pre me</w>
pre cin
precin ct</w>
prac tic
posi tions</w>
pogra phy</w>
plan ets</w>
plan et
plan es</w>
pi pes</w>
pi pe</w>
ph ilosoph
ph e
person ality</w>
perim eter</w>
per spective</w>
pe e</w>
parti cipa
par ent</w>
pal ad
pain ful</w>
pack age</w>
pa th
p lot</w>
p ink</w>
p in</w>
p hä
p ful</w>
organi siert</w>
or n
or a</w>
opol y</w>
offen se</w>
näch ster</w>
nä h
nor malerweise</w>
nor malen</w>
neu gierig</w>
nerv t</w>
neh mer
neben an</w>
ne ut</w>
ne gative</w>
nach her</w>
na vi
na i
män n
mus stest</w>
multi ple</w>
mp ing</w>
mp en</w>
mod els</w>
mit zu
mit bringen</w>
mis ch</w>
might ve</w>
mi xed</w>
mi cs</w>
met al</w>
mend ment</w>
me at</w>
main tain</w>
low ski</w>
los lassen</w>
lo ck
lieb sten</w>
li ps</w>
li cen
len ses</w>
legi ti
lea ther</w>
lea ds</w>
le y
le i</w>
law yers</w>
lan dete</w>
lan ce</w>
la unch</w>
körper lich</w>
krie gs
krea tiv</w>
kre u
kr ö
kor rekt</w>
kein erlei</w>
ka in</w>
k räfte</w>
k eh
j o</w>
is ms</w>
invest ment</w>
inv asion</w>
interessan te</w>
integri ty</w>
inspi red</w>
in come</w>
ill ing</w>
ik a</w>
ig an</w>
ick er</w>
hä ttet</w>
hoff entlich</w>
hoch ziehen</w>
ho her</w>
hin ein
hin auf</w>
hier mit</w>
hi dden</w>
heraus gefunden</w>
her gekommen</w>
hel pful</w>
hal tet</w>
ha mmer</w>
h st</w>
gru ppe</w>
gre ed</w>
grand mother</w>
goo gelt</w>
go in</w>
gh ted</w>
getau cht</w>
geschä ft</w>
gesch ieht</w>
gesch enkt</w>
genie ßen</w>
gen ds</w>
gel o
gel ang</w>
geh öre</w>
gefr oren</w>
geflo gen</w>
gef iel</w>
gebor gen</w>
ge wissen</w>
ge tragen</w>
ge stoßen</w>
ge mein</w>
ge klärt</w>
ge klaut</w>
ge glaubt</w>
ge dauert</w>
gar bage</w>
g rä
g rief</w>
g ran
g nis
g nerin</w>
g ab
für chten</w>
fü llen</w>
fu cks</w>
frea king</w>
frea k</w>
fre sh
fran zösi
for th</w>
for man
for ei
flo wers</w>
fle w</w>
filmma kers</w>
fil ter</w>
fi ction</w>
fer tigen</w>
fa ced</w>
f it
f is
expl ore</w>
experi ment</w>
experi en
execu tive</w>
exa kt</w>
ex er
ev acu
essour cen</w>
essen ce</w>
es sion</w>
erst mals</w>
ersch ien</w>
erle dige</w>
erhö hen</w>
er wischen</w>
er warte</w>
er raum</w>
er r
er lei
er kenne</w>
entsch lossen</w>
enth ü
ent stehen</w>
ele k
el en
eindeu tig</w>
eil lance</w>
ei r
eg g</w>
ea st</w>
e ys</w>
e x</w>
dreh ten</w>
drea med</w>
dra ft</w>
do se</w>
disa gree</w>
dien ste</w>
di vi
dez vous</w>
deut sche</w>
dep ends</w>
dead line</w>
de cken</w>
d ole</w>
cti vely</w>
cra p</w>
cr ystal</w>
correc tly</w>
cop y</w>
coo king</w>
conta cts</w>
conspi racy</w>
consci ous</w>
condu ct</w>
conc ept</w>
con fron
com pu
com mitment</w>
com edi
coll abor
co hol</w>
ck ily</w>
cir cus</w>
cil le</w>
chter t</w>
char ming</w>
chan nel</w>
ch lor
ch at</w>
ch asing</w>
ce um</w>
canc el</w>
ca p</w>
ca ine</w>
c ling</w>
c auti
bran che</w>
br äu
br auch</w>
boo t</w>
boo m</w>
bom ber</w>
bo w</w>
bo und</w>
bo gen</w>
bo ards</w>
blö d</w>
bie te</w>
betra y</w>
bestra ft</w>
bess eres</w>
beschü tzt</w>
bemer kens
belon ged</w>
bel s</w>
bei bringen</w>
behaup ten</w>
begrei fen</w>
beg ging</w>
be ängsti
be wiesen</w>
be stand</w>
be kamen</w>
bas ic</w>
bas ement</w>
ba te</w>
b ungs
b bing</w>
b ass</w>
avail able</w>
atta cking</w>
at in</w>
as hes</w>
as hed</w>
argu ing</w>
arbei teten</w>
ar t
ar range</w>
ar men</w>
ar ious</w>
app e
ant rieb</w>
ann äher
ann ing</w>
angeb lich</w>
ange l</w>
an z</w>
an treten</w>
an spru
an kam</w>
an hören</w>
all ys</w>
all ing</w>
ali sts</w>
ali gen</w>
ali ens</w>
al ty</w>
ag no
after wards</w>
aff airs</w>
ac tor</w>
ac ity</w>
ac ci
ac ade
ab sor
a pp</w>
a ph
Zuhäl ter</w>
Z U</w>
Z E
Y OU</w>
Wü ste</w>
Wi se</w>
Whe ther</w>
Wh ole</w>
Wet ter
Werk zeug</w>
Wal shys</w>
Wal mart</w>
Wahl kampf</w>
Wa veri
Wa chen</w>
W ün
W ind</w>
W E
Vor sitz
Vertebra ce</w>
Ver änderung</w>
Ver tra
Ver schw
Ver sch
Ver rä
Ver n
Ver lo
Ver hält
Ven nek</w>
Ve gas</w>
Ur in</w>
Unil u</w>
US Regierung</w>
U rethre
Tw enty
Tur m</w>
Tra dition</w>
Tie f
Ti ere</w>
Ther ap
Thanks giving</w>
Th rough</w>
Tan z
T wi
Su preme</w>
Stau b</w>
St äd
Sp orts</w>
Sp itz
Sp ei
So f
Skla ver
Sk ank</w>
Sho ji</w>
Shir ley
Sey mour</w>
Sen at</w>
Se eing</w>
Se ction</w>
Schön heit</w>
Schön es</w>
Schön e</w>
Schä tzchen</w>
Schwin kie</w>
Schw ent
Schrei b</w>
Scho ck</w>
Sch ade</w>
Sch ach</w>
Sch ach
Sat z</w>
Samo a</w>
Sa gst</w>
ST E
S ound</w>
S low</w>
Ri esen</w>
Republi cans</w>
Repräsent anten
Red skins</w>
Re zept</w>
Re por
Ra dio</w>
REG IE</w>
R in
Präsident schaft</w>
Progra mme</w>
Po st
Po or</w>
Pi etro</w>
Philosoph ie</w>
Per ü
Pentag on</w>
Pa pier</w>
PRÄ S
P att
Or lowski</w>
O ther</w>
O hr</w>
O asis</w>
Nipp el</w>
Nic ole</w>
Neu lich</w>
Netz werk
Netfli x</w>
Ne os</w>
N enn</w>
Män ner
Mor ning</w>
Mom ent
Mitter nacht</w>
Mitta gessen</w>
Mini ster
Milli on</w>
Micha els</w>
Mich igan</w>
Me etings</w>
Mc Lar
Mau reen</w>
Ma gie</w>
Ly ceum</w>
Lu cille</w>
Lu ci
Lin sen</w>
Lin d
Lie uten
LI AM</w>
L O
Kü he</w>
Kön nt</w>
Kä se</w>
Kur z</w>
Kur z
Kreuz fahrt</w>
Komm and
Kom man
Kom bination</w>
Koh le</w>
Koff erraum</w>
Ko kain</w>
Klei dung</w>
Kin os</w>
Kat zen</w>
Kap it
Kan in
Kalab i</w>
Ka mp
K ür
K lo
K issen</w>
K ab
K O
Jä ger</w>
Ju de</w>
John son</w>
John ny</w>
Jeff ries</w>
Je w</w>
Je ffs</w>
Jack ie</w>
J OHN</w>
Indi en</w>
In tegri
In s
In fos</w>
In fo</w>
IS T</w>
IC E</w>
I O
I II</w>
Hen ry</w>
Hel enas</w>
Heili gen</w>
Hand ys</w>
Ha iti</w>
H R</w>
Grand ma</w>
Glo bal</w>
Gesch windigkeit</w>
Ges und
Ger uch</w>
Gemäl de</w>
Gemein schaft</w>
Gel ie
Gei st
Gehir n
Geh st</w>
Geburt stag
Ge st
Gal ax
G ates</w>
G R
Fü ßen</w>
Fähig keit</w>
Fre ut</w>
Frank reich</w>
Foo t
Foo ds</w>
Fo togra
Flo tte</w>
Fla gs</w>
Fin de</w>
Fig ur</w>
Fiel d</w>
Fi scher</w>
Fein de</w>
Feier tage</w>
Fa ir</w>
F ound</w>
F ass
Ex tre
Et wa</w>
Ern sthaft</w>
Ermitt lungen</w>
Er leb
Entwick lung</w>
Eli jah</w>
Ele mentary</w>
Einwan derer</w>
Ein heit</w>
E ver</w>
E hren</w>
E di
E T</w>
Du bai</w>
Dro gen
Dien stag</w>
Dien st</w>
Di rekt</w>
Den kt</w>
Dar über</w>
D eli
D EN</w>
Cumber land</w>
Cor y</w>
Con ways</w>
Cl ark
Ci ao</w>
Chin esen</w>
Chi co</w>
Chara kter</w>
Char lene</w>
Ch ávez</w>
Cau cus</w>
C A
Bu ck
Bri lle</w>
Bonus hinder
Blei bt</w>
Bit ch</w>
Bil ly</w>
Bet h</w>
Be glei
Be dür
Bar riere</w>
Bak terien</w>
Ba ttle</w>
B our
B lau
B S</w>
B FF
Angel s</w>
Am ts
Al lied</w>
Al arm</w>
AU F</w>
AD A</w>
A y</w>
A ward</w>
A pp</w>
A mp
A chtung</w>
A cht</w>
A US
7 00</w>
20 14</w>
2 50</w>
2 5
2 3
19 16</w>
über lassen</w>
ö s</w>
ö fter</w>
é s</w>
Ö l</w>
zusammen arbeiten</w>
zurück geben</w>
zu zusehen</w>
zu kün
zu frie
zor backs</w>
zi ellen</w>
zi ehst</w>
za tions</w>
za hle</w>
z y
z ieh</w>
z an</w>
yn sle
y l
y el
wor th
wor rying</w>
wor kers</w>
wom ans</w>
wo zu</w>
wn ers</w>
wit nesses</w>
wirk ungen</w>
wi ves</w>
wi re</w>
whisp ers</w>
wer fe</w>
wer ben</w>
weg ungen</w>
weg genommen</w>
we al
warri or</w>
war a</w>
w rest
w re
w ett
w ein</w>
w are</w>
vulner able</w>
vor über
vor s</w>
vor bereiten</w>
voll kommen</w>
vol un
vie wer</w>
vi ces</w>
veter an</w>
veröffent licht</w>
verschie ben</w>
verrü ck
verha ften</w>
verdamm ter</w>
verbr ei
ver stand</w>
ver setzt</w>
ver handeln</w>
ver ga
ur day</w>
ur d</w>
up date</w>
unter sucht</w>
unter schreiben</w>
unter gehen</w>
unglaub liche</w>
under ground</w>
un ted</w>
un ks</w>
un geh
un fair</w>
un angenehm</w>
um sonst</w>
ultima tely</w>
ul ts</w>
tä tig</w>
tza hl</w>
tz ei
tzei tig</w>
typic al</w>
ty p
tsch er</w>
trä umt</w>
tri cks</w>
tra inieren</w>
tra il</w>
tr ennen</w>
to days</w>
to ast</w>
tic ul
ti ps</w>
ther e
th ead</w>
ten ac</w>
telli gent</w>
technolo gies</w>
te ars</w>
tan ni
tal en</w>
ta cos</w>
t wo
t une</w>
t ear</w>
surv eillance</w>
sub po
su sta
stär k
stu ff
stri eren</w>
strate gi
stra i
str ie</w>
sti scher</w>
sti gen</w>
stell er</w>
stea k</w>
ste ering</w>
ste er</w>
stamm ers</w>
st ungen</w>
st ill
st ig
squ ea
speci fically</w>
spec ta
spea ks</w>
sp unk
sp ire</w>
sor gung</w>
sol ini</w>
so cks</w>
smo s</w>
sm aller</w>
sla very</w>
sk ep
sk el
situ ations</w>
si es</w>
si er
si der</w>
si ck
shou ting</w>
shi tty</w>
shar ing</w>
sh ort
separ ate</w>
sen der</w>
se ek</w>
se cur
screa m</w>
schri ften</w>
schrei bung</w>
schock iert</w>
scho ss</w>
scho ols</w>
schie ben</w>
sche dul
schau te</w>
sch uh</w>
sch loss</w>
s ole</w>
s now
s hr
ru inieren</w>
rout ine</w>
riz ona</w>
ries ige</w>
ries ig</w>
ri ous</w>
ri ce</w>
requ est</w>
represen ta
remin ds</w>
rein gelegt</w>
regi ster</w>
recogni zed</w>
recei ve</w>
re verse</w>
re tt</w>
re t</w>
re mo
re mark
re geln</w>
re d
ra pes</w>
ra p</w>
ra dio
ra bbit</w>
r Ã</w>
r ausge
questi oning</w>
quar ters</w>
publi shed</w>
pro fi
prin cess</w>
prepar ing</w>
pre cious</w>
pr int</w>
pois oning</w>
po sted</w>
po d</w>
ple ased</w>
plan en</w>
pla yers</w>
pi rates</w>
pi rate</w>
philosoph y</w>
per manent</w>
pea ce
pas ste</w>
pagan da
pa perwork</w>
p oll
p ick
p fe</w>
p anic</w>
p al</w>
out come</w>
organi zation</w>
ord net</w>
or ed</w>
or dnung</w>
optimi stic</w>
op ez</w>
onn y</w>
on ds</w>
ol dest</w>
offen en</w>
od or</w>
oce ans</w>
obses sed</w>
o wners</w>
nu mmer</w>
nor mal
no vel</w>
neu tr
net ter</w>
ner halb</w>
neighbor s</w>
nation ale</w>
na tur
na ils</w>
n i</w>
n eter</w>
n ell</w>
mä ß
mosp here</w>
mo tion</w>
mm a</w>
mitt ed</w>
mista ken</w>
mis sions</w>
mi ghty</w>
met aph
mer ken</w>
mei stens</w>
meas ures</w>
mean time</w>
manu fac
mann er</w>
magi sche</w>
magi cal</w>
ma tisch</w>
ma ti
ma sters</w>
ma keup</w>
ma c
m ou
m ont</w>
m h</w>
m ens</w>
m el</w>
m b
m at</w>
m ask</w>
lö se</w>
lö cher</w>
läu fts</w>
ll te</w>
lin e
lim its</w>
li qu
li gen</w>
less ons</w>
lau b</w>
la ws</w>
kön i
kämp fe</w>
kontakti eren</w>
konta kt</w>
kommuni zieren</w>
kom bin
ko sten
kletter er</w>
kla gt</w>
kis sing</w>
king dom</w>
kill s</w>
kay ama</w>
kat che
kar ten</w>
kann s</w>
k ru
k ro
k mh</w>
ji wara</w>
je derzeit</w>
it ee</w>
ist isch</w>
is on</w>
is ely</w>
irgend wohin</w>
introdu ced</w>
inspiri ert</w>
in tend</w>
in telligent</w>
in tan
in hales</w>
in fo</w>
in et</w>
in er
immig rant</w>
il yn</w>
ignor ieren</w>
i o
i erst</w>
i dio
i den
höch ste</w>
hä r
hospit als</w>
hol st</w>
ho wd</w>
ho ped</w>
ho ckey</w>
hl ich
hinter lassen</w>
hinter her</w>
hin unter</w>
hervor ra
her unter
hei t
hei ght</w>
heal th
hea vens</w>
har ten</w>
hand lung</w>
han dy</w>
ha fte</w>
h et
h eilen</w>
gu tem</w>
gu ez</w>
grün det</w>
größ ere</w>
groß zü
grocer y</w>
gra ve</w>
gra bs</w>
glich keit</w>
gl es</w>
gl as
gin gs</w>
gh ed</w>
get rieben</w>
gesp ürt</w>
gescha h</w>
ger te</w>
ger ed</w>
gene tic</w>
gen utzt</w>
gen er</w>
gefü gt</w>
gefre ut</w>
gefre ssen</w>
ge wachsen</w>
ge jagt</w>
gar ten</w>
gar anti
g ünstig</w>
g ö
g uns
g rie
g on</w>
g nar
g man</w>
g keiten</w>
g gy</w>
g fried</w>
g all</w>
fün ften</w>
för dert</w>
freund lich</w>
fre quen
frau d</w>
fra g
for est</w>
fli p</w>
fli es</w>
fl esh</w>
fi cken</w>
fer red</w>
fer enz</w>
fem in
fas cin
fa x</w>
f und</w>
f abri
every bodys</w>
et ts</w>
establi shed</w>
errei chte</w>
ern ä
er zogen</w>
er scheint</w>
er neut</w>
er geben</w>
ep ic</w>
enth usi
enter tain
ent stand</w>
enjo yed</w>
enga giert</w>
en k</w>
en gine</w>
en em
enem ies</w>
empfin dlich</w>
el st</w>
el o</w>
el er
el and</w>
einzi ges</w>
einzi ger</w>
ein igt</w>
ein halb</w>
ein gesch
ei fer
eff orts</w>
eff ici
ea ten</w>
e fel</w>
e b
durch zu
durch s</w>
dunk le</w>
drück te</w>
dre w</w>
dre d</w>
do wns</w>
distri bu
die jenigen</w>
di alo
di al</w>
di agno
deva stated</w>
den er</w>
deli ber
deep er</w>
dedi cated</w>
dec lar
dec ei
de vil</w>
de pressed</w>
de gree</w>
de fend</w>
de bate</w>
de b
dauer nd</w>
da von
da chtest</w>
d us</w>
d oms</w>
d ness</w>
d ein
d ale</w>
curr ently</w>
ctic a</w>
cti ves</w>
cro wn</w>
cro ss
cre ates</w>
cov ny</w>
cour s</w>
coo kies</w>
continu ing</w>
conta cted</w>
con ven
con tent</w>
con sul
con gregation</w>
comedi an</w>
colle cting</w>
co very</w>
co sts</w>
co caine</w>
clo ses</w>
cli cks</w>
cle ar
claim s</w>
claim ed</w>
ck les</w>
cir cle</w>
cho ices</w>
che er</w>
ch ste</w>
ch sen</w>
ch ens</w>
caus ing</w>
cap ital</w>
camp s</w>
ca st</w>
c upcake</w>
c table</w>
c ousin</w>
c and
bur gh</w>
bu tton</w>
bu ried</w>
bri ck</w>
br a</w>
boo ts</w>
boo th</w>
boo ked</w>
bol locks</w>
bo wl</w>
blo wing</w>
bili ties</w>
betr ü
besch loss</w>
beruhi gt</w>
beg ri
beauf tra
be wohner</w>
be vorzu
be vor
be unruhi
be tt</w>
be treten</w>
be treiben</w>
be th</w>
be stehen</w>
be kannte</w>
be graben</w>
be endete</w>
be ef</w>
be ard</w>
be an</w>
bas is</w>
bar tender</w>
bar er</w>
bac teria</w>
ba y</w>
ba hn
b its</w>
b id</w>
avoi ding</w>
auth enti
auspro biert</w>
aus einander
aufzu halten</w>
auff äl
auf zunehmen</w>
auf merk
auf gebracht</w>
au diences</w>
att rac
at om
at mosphere</w>
assu med</w>
assaul ted</w>
ar d
antwor ten</w>
answer ed</w>
annäher nd</w>
ann on</w>
ange spannt</w>
ange kommen</w>
ange boten</w>
analy sis</w>
an kommen</w>
an fassen</w>
alterna tive</w>
ali sieren</w>
ali en
al lows</w>
air port</w>
agi lity</w>
ag gressi
affe ct</w>
ad just</w>
ac tors</w>
ac tivi
ac qui
ac qua
ac cording</w>
abo li
abgel enkt</w>
ab gestürzt</w>
ab ends</w>
a k</w>
a ding</w>
Zusatz arti
Zu cker</w>
Zivili sation</w>
You Tube</w>
Yor ks</w>
Wor ks</w>
Wor an</w>
Wich ser</w>
Who se</w>
Wh yd</w>
Wer ner</w>
Welt all</w>
Wea pon</w>
We ge</w>
Wa sch
Wa ch</w>
W är
W ut</w>
Vor hang</w>
Vor der
Vor berei
Vol tage</w>
Vide os</w>
Vi keb
Verk ehr
Verhält nis</w>
Verdamm te</w>
Verb ün
Ver mögen</w>
Ver ha
Ver ge
V eter
Urethre x</w>
Unter t
Unter lagen</w>
Universi tät</w>
Un fassbar</w>
Tus k</w>
Tro phä
Tro ck
Tri xie</w>
Tren nung</w>
Toll er</w>
To tal</w>
Tier arzt</w>
Tie fe</w>
Th ur
Tar zan</w>
Tac os</w>
Ta king</w>
T ed</w>
T ank</w>
T EN</w>
Sü ß
Szen en</w>
Stur z</w>
Strei t
Stra hl
Stra fe</w>
Sti efel</w>
Sti ef
Ster ne</w>
Stell ung</w>
Stea k</w>
Ste ffen</w>
Staatsan walt</w>
St un
Sp uren</w>
Sp u
Sp on
Sp ie
Sonn tag</w>
So weit</w>
So fa</w>
Sny der</w>
Sklaver ei</w>
Sig urd</w>
Sie gfried</w>
Si pp</w>
Si mu
Si gef
Shar on</w>
Sei en</w>
Se ven</w>
Se chs</w>
Schri tte</w>
Schri ft</w>
Schmu g
Schild krö
Schauspiel erin</w>
Sch wach
Sch lange</w>
Sat urday</w>
Sas katche
Sand wich</w>
Sa ve</w>
Sa int</w>
S tern</w>
S par
S ich</w>
S em
S I
S D</w>
Rober ts</w>
Ri ffe</w>
Repräsentanten haus</w>
Re staurants</w>
Re pton</w>
R äume</w>
R oute</w>
R ory</w>
R essourcen</w>
R eli
R ein</w>
R and
Protok oll</w>
Proto typen</w>
Pro paganda
Pri tch
Pos ner</w>
Pingu ine</w>
Pe te</w>
Papier kram</w>
Pac i
Pa stor</w>
P s</w>
P rie
P ool</w>
P ea
P E
Organi sation</w>
Or ten</w>
Off i
O ff</w>
O R</w>
Nov ember</w>
Not fall</w>
Nipp les
Nar dole</w>
Na kayama</w>
N ick
N eal</w>
N asser</w>
N B
Mü ll
Mön che</w>
Mus solini</w>
Mus cle</w>
Mu stan
Mon ks</w>
Mo ss</w>
Mo on</w>
Mitt ag</w>
Mik ey</w>
Mi ddle</w>
Meer jung
Mean while</w>
Mc Car
Masch inen
Mar ilyn</w>
Ma y
Ma gen
M är
M ul
M es
M aul</w>
M P
Lü gnerin</w>
Lit er
Lieuten ant</w>
Liber ty</w>
Li zard</w>
Lewi s</w>
Le ere</w>
Lac ey</w>
Lab or
L opez</w>
Kü s
Köp fe</w>
Kranken hä
Konkur ren
Kon fli
Kommuni kation</w>
Kommand ant</w>
Kli enten</w>
Kl einer</w>
Kl eine</w>
Ki ste</w>
Ker le</w>
Ka ita</w>
K yle</w>
K aum</w>
Justiz ausschuss</w>
Justi ce</w>
Jo sie</w>
Je den</w>
Jahr hundert</w>
J et
It d</w>
Irgend wie</w>
Irgen detwas</w>
Inv asion</w>
In nerhalb</w>
In der</w>
In deed</w>
IN G
IKE A</w>
I rish</w>
I ni
I g
Ho ch</w>
Hinder nissen</w>
Hem ing
Hei mat
Han ds</w>
Hag gar</w>
Ha vent</w>
H m</w>
H al</w>
Grün den</w>
Groß artig</w>
Gro ße</w>
Gr öß
Gol den</w>
Glück s
Glei ch</w>
Gesam t
Gel ände</w>
Geheim dien
Geh ts</w>
Ge wissen</w>
Ge wich
Ge fähr
Ge däch
Ge danke</w>
Gar rett</w>
Gar den</w>
Ga me</w>
GE SCH
GA C</w>
G ü
G ul
G on
G olf</w>
G EN
Fu jiwara</w>
Fron tenac</w>
Fris ur</w>
Freund schaft</w>
For men</w>
Fol low</w>
Fo kus</w>
Flugob jekt</w>
Flug ha
Fin den</w>
Fi fth</w>
Far rell</w>
Fabri k
Fa vor
F lie
F ili
F as
F OR
Exper te</w>
Erkenn tnis</w>
Er be</w>
El tern
Eis en
Ed ward</w>
Eben e</w>
Ear l</w>
EMa il</w>
E vent
E llen</w>
E her</w>
E ffe
Dä nen</w>
Dutz end</w>
Du covny</w>
Dokum ente</w>
Do yle</w>
Dis k
Dire ktor</w>
Din ger</w>
Di anne</w>
Di a
Dar nell</w>
Da mas
D rench</w>
D ol
D J</w>
Cra ig</w>
Cos by</w>
Col in</w>
Co ast</w>
Clear ly</w>
Ci bo</w>
Chiv onne</w>
Chev y</w>
Ch ão</w>
Car la</w>
Ca m
C ouldnt</w>
C onn
Bür ger</w>
Bul lock</w>
Brau n</w>
Brady American</w>
Bra v
Br ie</w>
Br enn
Boo ker</w>
Bo wl</w>
Bo wer
Bet eili
Ber mu
Beer digung</w>
Be völ
Back pages</w>
Ba u</w>
BI G</w>
BFF s</w>
B äume</w>
B obby</w>
B lock</w>
B ier
B einen</w>
Aus sagen</w>
Auf zug</w>
Au toren</w>
Au gust</w>
At mosp
At me</w>
Ar che</w>
Anti Doping</w>
Antark tis</w>
Antar ctica</w>
Angri ffe</w>
An wal
An kunft</w>
An gie</w>
An a</w>
Alte an</w>
Ali ce</w>
Ak ten</w>
Abgeord neter</w>
Ab sicht</w>
A ynsle
A rizona</w>
A drenal
8 6</w>
7 0s</w>
5 4</w>
4 2</w>
4 000</w>
3 7
3 3</w>
3 1</w>
ün k
ünk tlich</w>
über wunden</w>
ör ungen</w>
äu se</w>
än derte</w>
ß end</w>
Ü bri
Ö l
Æ ll
Æll a</w>
Är z
zen ten</w>
zeich nung</w>
zahl ung</w>
z Ã</w>
wün scht</w>
wur f</w>
wur dest</w>
wunder bare</w>
wra pped</w>
wor ries</w>
wor n</w>
wor ben</w>
wi llig</w>
whi st
whi p</w>
weiter zukommen</w>
weiter er</w>
wei ten</w>
wei chen</w>
weg nehmen</w>
we bl
war nung</w>
war nt</w>
war m
wal ks</w>
wa chte</w>
w yn</w>
w els</w>
w alls</w>
vorstell bar</w>
vor hast</w>
vor aus</w>
vo k</w>
vir tual</w>
verstän dnis</w>
verrü ckte</w>
vermitt eln</w>
verli erst</w>
verge sse</w>
verdien e</w>
ver zweifelt</w>
ver wen
ver wei
ver setzen</w>
ver fü
ver brachte</w>
ve get
v ey
v ali
us hed</w>
ur sprün
ur ines</w>
ur gent</w>
uni form</w>
under age</w>
un stable</w>
un schuldi
un ited</w>
um s
u re
u la
tä glich</w>
tz punkt</w>
tur tle</w>
tri als</w>
trei bst</w>
tra ini
tra ge
trage dy</w>
tra g
tra cks</w>
tr um</w>
tr it</w>
tough er</w>
to e</w>
to ber</w>
tiv ely</w>
tion ally</w>
tig ungen</w>
tig sten</w>
tie fer</w>
ti me
ti er</w>
therap y</w>
the e</w>
terri tory</w>
ter r
ten nis</w>
te ure</w>
te ur
ta ts
ta tions</w>
t zutage</w>
t ome</w>
t ings</w>
t gun</w>
t elt</w>
t ein</w>
t ausende</w>
syn thes
sy cho
sur render</w>
suit case</w>
suggest ed</w>
su ter
stän den</w>
stä tte</w>
stu dying</w>
stron gly</w>
stor es</w>
stell st</w>
ste pping</w>
ste cke</w>
sta p
sta mmen</w>
st ep
st ell</w>
spe k
span nen</w>
spac es</w>
sp in</w>
sp en</w>
son gs</w>
sol ar</w>
so ber</w>
sni ff
sle e
sla m</w>
skin ny</w>
sin gers</w>
simp li
sicher lich</w>
sich eren</w>
si erten</w>
si eh
sieh ts</w>
sha ped</w>
serva tive</w>
ser ves</w>
sen ti
sen ses</w>
sen den</w>
secu red</w>
se where</w>
se h</w>
se e
scri p
schwin d
schwier ige</w>
schw än
schw ul
schrei bst</w>
schnei den</w>
schmer z
schla g
schla fe</w>
schau e</w>
sch wä
sch lü
sch iff</w>
sch eiß
sch al
scen es</w>
scar f</w>
s u</w>
s mil
s lu
s ein
s ank</w>
rück wärts</w>
rä um
ru f</w>
ro ot</w>
rin ge</w>
ri mp</w>
requ ires</w>
remo te</w>
remin ded</w>
rei z
rei chte</w>
rei cher</w>
regi on</w>
regi me</w>
rech tzeitig</w>
rech nen</w>
rea m</w>
re ver
re tro
re tired</w>
re placed</w>
re place</w>
re moved</w>
re commen
re a</w>
ran ger</w>
r über
r ungen</w>
r hy
r assi
qu ant
pu pp
psych i
propo sal</w>
produ ziert</w>
pro file</w>
pri vi
present ed</w>
pre vious</w>
pr ene
pota to</w>
ple asant</w>
plan ation</w>
pl om
pimp s</w>
pil low</w>
phr ase</w>
pf el
pen is</w>
pen guins</w>
pas sing</w>
pas se</w>
participa te</w>
pan el</w>
p ti
p reis</w>
p ops</w>
p ft</w>
p f</w>
p etro
over night</w>
ou red</w>
oper ational</w>
on al</w>
ol ved</w>
ol d
offi zielle</w>
ob jects</w>
o wns</w>
näh ert</w>
no things</w>
ni ck</w>
new sca
neigh bor</w>
neh mt</w>
need le</w>
ne st
n irgendwohin</w>
n es
möglich e</w>
mo ti
mo s</w>
mo de</w>
mm er
mitt l
mil ys</w>
mer on</w>
mer ke</w>
mel a</w>
me tho
mat ched</w>
ma y
ma gnificent</w>
m s
m ol
m o</w>
m ex
m all</w>
lüs sel</w>
lä ssig</w>
lon g
lo cken</w>
lie gst</w>
lie fer
lich sten</w>
lich em</w>
licen se</w>
li fting</w>
le gend
le di
ledi glich</w>
le bte</w>
lauf e</w>
las sung</w>
lang samer</w>
la id</w>
la ger</w>
kür zlich</w>
köst lich</w>
kon trolle</w>
kon stru
kno cking</w>
kne es</w>
kauf s
ka tholi
ka mmer</w>
k ern</w>
k at</w>
k ali
jap anischen</w>
jap anische</w>
ja min</w>
j unkie</w>
it able</w>
ist enz</w>
irgen ds</w>
ir at</w>
indi stin
incre ase</w>
in tri
in spir
in qu
in ner</w>
in gre
in ches</w>
imagin ation</w>
ill is</w>
il lo
iem lich</w>
ic y</w>
i tion</w>
hö here</w>
hän omen</w>
hy dra
hunder t
hom es</w>
holi days</w>
hoch zu
ho he</w>
hin über</w>
hin aus
hi tting</w>
her kommen</w>
hand ful</w>
hal l
hal b
ha ck</w>
h ungen</w>
grün den</w>
gro unds</w>
grea ter</w>
gor geous</w>
glück licher</w>
gi ggling</w>
gi ge</w>
gest ört</w>
gest alten</w>
gesch oben</w>
gesch mei
gerei cht</w>
geop fert</w>
geni al</w>
gener ous</w>
gei st</w>
geb il
geb iet</w>
ge steckt</w>
gal ax
ga tiv</w>
ga thered</w>
ga ther</w>
ga ined</w>
g su
g all
för mlich</w>
för mi
free zer</w>
free ze</w>
for schung</w>
for e
fl ed</w>
fire place</w>
fir st
finan cial</w>
fin est</w>
filmma ker</w>
figh ters</w>
fi xing</w>
fe eding</w>
fan gs</w>
facili ties</w>
fa milys</w>
f tiger</w>
f lei
f ans</w>
ex posed</w>
ex planation</w>
et on</w>
establi sh</w>
erzä hl</w>
erwi schte</w>
ern sthaft</w>
er ra</w>
er greifen</w>
enti meter</w>
entertain ment</w>
ent schied</w>
ent ing</w>
ent ar
ens weise</w>
en forcement</w>
emp lo
embarr assed</w>
em eter
ell as</w>
el sewhere</w>
el in</w>
einzel nen</w>
einbar ung</w>
ein verstanden</w>
ein heit</w>
eigh th</w>
eh lt</w>
e sten</w>
e k
dri ve
don or</w>
don er</w>
disp lay</w>
din gungen</w>
di zzy</w>
di stress</w>
di schen</w>
di sche</w>
di et</w>
descri bed</w>
den selben</w>
den k
dem selben</w>
dem anding</w>
de ck
de als</w>
dar y</w>
dama ged</w>
d up</w>
d om
d less</w>
d ging</w>
d ele
d denly</w>
d chen</w>
cur ry</w>
cri mes</w>
cr ash</w>
coun ting</w>
cou ra
conclu sion</w>
con su
con fes
communi cations</w>
comm end</w>
com ments</w>
colle cted</w>
cle ared</w>
cl one</w>
ck lich</w>
circum stances</w>
che f</w>
cha ins</w>
ch bar</w>
ch att
ch ased</w>
cer em
celebri ty</w>
cauti ous</w>
ca ttle</w>
c es
bur y</w>
bu tter</w>
bu d</w>
bro o
bro ad
bri tanni
brea ker</w>
bre cher</w>
bor rowed</w>
bom bing</w>
bom be</w>
bo ws</w>
bl essing</w>
bir ds</w>
bil dung</w>
bi eter</w>
beschrei ben</w>
ben e</w>
ben de</w>
bel ogen</w>
bel ly</w>
bein gs</w>
befrei en</w>
be züglich</w>
be zeichnet</w>
be urteilen</w>
be setzt</w>
be sei
be geh
be es</w>
be er
be ating</w>
batt les</w>
bar ri
b är
b ier</w>
b anned</w>
b anks</w>
autom ated</w>
aul trit</w>
aufzu steigen</w>
aufzu geben</w>
aufmerk sam</w>
atta cks</w>
athle tic</w>
assi stance</w>
ass ment</w>
as es</w>
ari um</w>
approa ching</w>
app lau
any time</w>
anti doping</w>
answer ing</w>
ann er</w>
ange ordnet</w>
anci ent</w>
an isch</w>
an i</w>
an geschossen</w>
an geschlossen</w>
an gehen</w>
amerikani scher</w>
akzep tiert</w>
activi ties</w>
activ ity</w>
acc eler
ac ts</w>
ab ili
ab bot</w>
a to
a tic</w>
Zü ge</w>
Zusammen arbeit</w>
Zusamm en</w>
Zeitschri ft</w>
Zeit ungen</w>
Za hl</w>
Z un
Z immer
Z iemlich</w>
Yu jis</w>
You rs</w>
Y ear</w>
Y ay</w>
Y A</w>
X X
Woll test</w>
Wis h</w>
Wir tschaft</w>
Wir k
Wil ly</w>
Whi skey</w>
Wer ke</w>
Welt meister</w>
We bl
Waveri der</w>
Wachstum shor
Wa is
Wa che</w>
W örter</w>
W ort
W IL
Vor gesetz
Vor bild</w>
Vikeb ø</w>
Verzei hen</w>
Ver suchen</w>
Ver fü
Ur teil</w>
U mar
Tö ten</w>
Tur ns</w>
Trock ner</w>
Tre ppe</w>
Tra cy</w>
To gether</w>
To de</w>
Ti sch
Thor pes</w>
The ory</w>
Te stament</w>
Tan zen</w>
Ta ges
T or</w>
T old</w>
T im</w>
T eile</w>
T R
T A
Syri a</w>
Symp tome</w>
Su ddenly</w>
Stu dent
Stre et
Sto ck</w>
Stand ort</w>
Spre chen</w>
Span ish</w>
Sp äter</w>
Sp rün
Sp rich</w>
Sp ri
Sp alten</w>
Some things</w>
Soll ten</w>
Sol dier</w>
Sof ía</w>
So cken</w>
Smo king</w>
Sigef rid</w>
Sie ger</w>
Sie ben</w>
Si erra</w>
Shirley Cuthbert</w>
Shin wells</w>
Shi rt</w>
Shepher d</w>
Sha rice</w>
Se a</w>
Schwent ke</w>
Schul den</w>
Scho tt
Scho kol
Schne e</w>
Schat ten</w>
Sch in
Sc aultrit</w>
Sc atman</w>
Saskatche wan</w>
S li
S U</w>
Ry ner</w>
Russi sch</w>
Rock away</w>
Ro ad</w>
Reich weite</w>
Re vier</w>
Re alit
Rat te</w>
Ra gnar
Ra d</w>
R ol
R ie
Qu ick</w>
Qu i
Qu anten
Port land</w>
Perü cke</w>
Persön lichkeit</w>
Par ker</w>
Paci fic</w>
P r
P is
P irat</w>
P ick
P hänomen</w>
P atri
Or son</w>
On line
Offen bar</w>
O val</w>
O c
Nor th
Nim itz</w>
Ne ws</w>
Ne ed</w>
Na tionen</w>
Mus keln</w>
Mul house</w>
Mor vok</w>
Mo tor
Mo ther
Mit suter
Mit gefühl</w>
Mist stück</w>
Meer es
Mea dow</w>
Me ema
Me da
Mar ia</w>
Maje sty</w>
Macall ans</w>
M ine</w>
M en</w>
M ER
Luft waffe</w>
Lu ckily</w>
Lon doner</w>
Lo ts</w>
Lo go</w>
Lin col
Le gends</w>
Le ft</w>
Le ben
Le be</w>
Lang ston</w>
Lager haus</w>
Kä fig</w>
Krie g
Kran kheit</w>
Kor ruption</w>
Kor alle</w>
Kop ie</w>
Konzent ration</w>
Konta kte</w>
Kom itee</w>
Kan a
Kamer am
K ün
K und
K nie</w>
K lu
K lett
K einen</w>
K E</w>
Juli o</w>
Jo anne</w>
Jahr es</w>
Ja w</w>
J et</w>
Inu it</w>
Inter esting</w>
Integri tät</w>
In n
Imm ig
IC H</w>
I C</w>
Hö chst
Hun de
Hu man</w>
Hu hn</w>
Hol z
Hir n
Ha y
Ha ck
H üte</w>
H art</w>
H alten</w>
H a</w>
Groß britanni
Go vernor</w>
Glau bt</w>
Glau be</w>
Geschen ke</w>
Ger äusch</w>
Gener al
Gelie bte</w>
Ge winner</w>
Ge stern</w>
Ge bieter</w>
G rei
G las
G la
G illis</w>
G il</w>
G RA
Fü hr
Fä llen</w>
Fried hof</w>
Fortschri tt</w>
Fo x</w>
Fo go</w>
Flugha fen</w>
Fin anz
Fin an
Feuerwehr mann</w>
Fes thalten</w>
Far mer</w>
Far ben</w>
Fanta stic</w>
F isch</w>
F is
F ight</w>
F ie
F ass</w>
F arm</w>
F ans</w>
Ex istenz</w>
Ewi gkeit</w>
En kel
En ga
Ele ment</w>
El sa</w>
E va</w>
E th
E ssen
E ll
E ch
Durch bruch</w>
Dun holm</w>
Dreh buch
Dra ke</w>
Don ald</w>
Dokum en
Do ktor</w>
Desig ner</w>
Des per
Dar ling</w>
Dar lenes</w>
Dan iel</w>
Dan es</w>
Da iry</w>
DO E</w>
DA S</w>
D um
D oll
D eir
D ead</w>
Cou ch</w>
Cosi mas</w>
Cort ni</w>
Cop y</w>
Cop enhagen</w>
Com pu
Com mission</w>
Com mander</w>
Com ic
Co smetics</w>
Clark son</w>
Char ge</w>
Ch ange</w>
Cam bridge</w>
CK PA
C rist
Bur t</w>
Bul len</w>
Bu ll</w>
Bu ch
Brü dern</w>
Brea ker</w>
Brea k
Brav o</w>
Brau chst</w>
Boulev ard</w>
Bo wling</w>
Bli ck
Bes itz</w>
Ber lin</w>
Be zug</w>
Be ste
Be ge
Bar t</w>
Bar keeper</w>
Bahn hof</w>
Ba y</w>
BA P</w>
BA CKPA
B ill
B ein
Aus weg</w>
Aus gang</w>
Auf stieg</w>
Au tor</w>
Ar ten</w>
Any body</w>
Ant rieb</w>
And To
An th
An spruch</w>
An satz</w>
An dere</w>
Americ as</w>
Am t
Ali en</w>
Al terna
Al ready</w>
Ak ro
Absol ut</w>
Aben teuer</w>
Ab schluss</w>
AR D</w>
A rea</w>
A elle</w>
A cker
8 0
6 8</w>
3 0s</w>
3 0000</w>
20 13</w>
194 2</w>
10 8</w>
1 3
ün det</w>
ück sich
über wachen</w>
über stehen</w>
ör ten</w>
ó n</w>
í guez</w>
é e</w>
äu ft</w>
äu fnis</w>
än der
äch st</w>
Übri gens</w>
Überwach ungs
Über haupt</w>
Æ th
Än derungen</w>
zü ge</w>
zwei mal</w>
zus p
zurück treten</w>
zu schlagen</w>
zieh ung</w>
zi fi
zeu gt</w>
zei ten</w>
z weit</w>
z op
z et
zet tel</w>
z ell
you th</w>
y ell</w>
wö lf</w>
wö ch
wunder schöne</w>
wor um</w>
wir kte</w>
wie gt</w>
wi pe</w>
wer en</w>
wel ches</w>
wein te</w>
weiger te</w>
we ckt</w>
we cken</w>
war test</w>
war rant</w>
war fare</w>
wal let</w>
vorüber gehend</w>
vor gefallen</w>
vo cali
vit äten</w>
vil le</w>
viel es</w>
vi lion</w>
verwand eln</w>
vertre te</w>
verga ß</w>
verblei benden</w>
verbin det</w>
ver wickelt</w>
ver seh
ver schafft</w>
ver sagen</w>
ver rä
ver heim
ver giss</w>
ver fol
ver fehlt</w>
ver bo
valu es</w>
v ital</w>
v ine</w>
ur t</w>
ur i</w>
uns icht
uns ich
ungspro zess</w>
unbe kannten</w>
un happy</w>
un fall</w>
un ched</w>
ums disk
umsdisk ussion</w>
um so</w>
um ge
um drehen</w>
u z</w>
u ts</w>
u pper</w>
u de</w>
typ isch</w>
ty pography</w>
ty pes</w>
tu m
tt eln</w>
tt eg
tteg at</w>
tt dessen</w>
tt chen</w>
tsch ü
ts y</w>
tro phy</w>
trau ma</w>
traff icked</w>
tra ins</w>
tr äumen</w>
tr ollen</w>
tour na
tou ches</w>
tor n</w>
to k</w>
tiv ation</w>
ti zen</w>
ti scher</w>
ti le</w>
ti cking</w>
ti a</w>
thre e
th ält</w>
th under</w>
th lon</w>
th ief</w>
th en
termin al</w>
ter mine</w>
ter en</w>
teil nehmen</w>
techni cal</w>
taus end</w>
tan zt</w>
tal kin</w>
ta xi</w>
ta way</w>
ta ting</w>
ta pas</w>
ta gs</w>
t ür</w>
t sk
t rieben</w>
t re</w>
t les</w>
sü d
sä tze</w>
syn thetic</w>
swea ter</w>
swe at</w>
swal lowed</w>
swa p</w>
survi val</w>
super hero</w>
suggest ing</w>
sub jects</w>
su peri
stür zte</w>
stän dnis</w>
stur m</w>
stron au
stor y
stoff e</w>
sto pping</w>
stit ute</w>
sti l</w>
sti cks</w>
ster ed</w>
statt ung</w>
statt dessen</w>
stat ute</w>
stan zen</w>
stan z</w>
stal tung</w>
sta che</w>
st y
st ungs
st unden</w>
st on
st ability</w>
spo on</w>
spiel st</w>
speci alist</w>
spe ct</w>
sp ri
some what</w>
sol le</w>
sogen annten</w>
sogen annte</w>
so unded</w>
so fern</w>
so da</w>
sna ke</w>
smo king</w>
sli ps</w>
sli p</w>
simu lation</w>
sig keit</w>
sie gen</w>
sicht bar</w>
sicher gehen</w>
si ble</w>
sho tgun</w>
shi ts</w>
shel ter</w>
shel f</w>
sh orts</w>
sh ine</w>
setz ung</w>
separ ated</w>
sen the
sen ior</w>
selt same</w>
sel te</w>
secur ing</w>
schü tze</w>
schwu l</w>
schwier igen</w>
schul de</w>
schlä fst</w>
schlimm ste</w>
schedul ed</w>
schaff ten</w>
scha det</w>
sch lüssel</w>
sand wich</w>
sal es
sal ary</w>
sa ßen</w>
sa ves</w>
sa telli
sa fer</w>
s w
s outh</w>
s now</w>
s mar
s burg</w>
ru ining</w>
romanti sch</w>
rom ance</w>
ro unds</w>
ro cket</w>
ro bot</w>
ri ver</w>
ri tten</w>
ri eren</w>
rev olution
ret rie
respekti ere</w>
respe kt
respe ct
remark able</w>
rema ins</w>
rel ief</w>
refer ring</w>
reco very</w>
re ward</w>
re treat</w>
re sign</w>
re sig
re pea
re commend</w>
re at</w>
ran ks</w>
ra ting</w>
r olle</w>
quick er</w>
quer que</w>
quant um</w>
quali fi
qu int
qu et
qu arium</w>
pur se</w>
pump ed</w>
pul ls</w>
prü gelt</w>
prote cted</w>
propo sed</w>
propo se</w>
progra mm</w>
produ ce</w>
pro stitution</w>
pro fit</w>
pro ceed</w>
prison er</w>
pri ori
pri ma</w>
pre sidential</w>
pre chen</w>
prac tically</w>
pr on
power ed</w>
poten tially</w>
portra it</w>
poli ce
po sters</w>
pla te</w>
pla cement</w>
pi re</w>
pi gs</w>
phen omen
petro l</w>
persön lichen</w>
perfe ktes</w>
per su
pe at</w>
pat ent</w>
part ys</w>
pain ted</w>
pa ths</w>
pa ge
pa ce</w>
p ünktlich</w>
p rank</w>
p our</w>
p ity</w>
p ile</w>
p an</w>
or chest
or al</w>
optimi stisch</w>
oper ators</w>
oper ating</w>
on i</w>
olo gen</w>
ol ymp
od ds</w>
o tic</w>
o sexu
o is</w>
nü chtern</w>
nu tzte</w>
no tion</w>
no gra
ni c
newsca ster</w>
ner ve</w>
ner d</w>
necess arily</w>
ne y
nachzu denken</w>
na sty</w>
na ppt</w>
n ten</w>
n nen</w>
n irgendwo</w>
n den</w>
n ass</w>
män ner</w>
mur a</w>
mu tation</w>
mp y</w>
mov ements</w>
mor t
mon at
moment an</w>
mm ert</w>
mith ilfe</w>
mi sche</w>
mi ese</w>
mex ikani
mer kte</w>
ment or</w>
masch ine</w>
mas sage</w>
ma hl</w>
m my</w>
m ly</w>
m ea
läch eln</w>
lossen heit</w>
loo p</w>
lie fert</w>
lich te</w>
lich keiten</w>
li tt</w>
li la</w>
li ger</w>
len gth</w>
lei ter</w>
lea ders</w>
le mma</w>
le hrer</w>
le cker</w>
lau ter</w>
lab s</w>
la ke</w>
la cht</w>
la ce</w>
l scht</w>
ku chen</w>
kra ft
koo per
ko cht</w>
ket ball
kei ts
kehr te</w>
ka sten</w>
k öp
k tion
k s
k ings</w>
k erung</w>
k els</w>
k ehrt</w>
jün gsten</w>
jud ging</w>
jit su</w>
it ok</w>
is h
irgend jemand</w>
irgend ein</w>
ir radi
inv est</w>
interes sieren</w>
instin cts</w>
in visible</w>
in sult</w>
in spire</w>
in law</w>
in gen</w>
import antly</w>
imm ys</w>
imm unity</w>
illo sa</w>
illeg ale</w>
ik anger</w>
identi fied</w>
ick ly</w>
ich e</w>
ic e
i sts</w>
i red</w>
i me</w>
i go</w>
i ans</w>
i ah</w>
i 3</w>
höch sten</w>
hän ge</w>
hypothe tisch</w>
hypo cri
hy per
hun gern</w>
hor mon
holi day</w>
histor ic</w>
hin weg</w>
hin unter
hi to</w>
hi mm
hi ko</w>
heu tigen</w>
hei st</w>
he bt</w>
he aling</w>
hau fen
haufen weise</w>
hate vers</w>
han gs</w>
ha ut</w>
ha f
ha bili
ha ar
h ut</w>
h ell
gü ltig</w>
gu i
gu ckt</w>
gu ck</w>
gsu k</w>
gri d</w>
gre ssion</w>
gre at
gra mm</w>
gra ce</w>
gr us
govern ments</w>
gol den</w>
gl ü
gl Ã</w>
gh ouse</w>
gh ani
gewöhn liche</w>
gest re
gesch rien</w>
ger ü
genu ine</w>
geneh mi
gen heiten</w>
geli ehen</w>
gel y</w>
gei st
gegen seitig</w>
geb äu
geb unden</w>
ge warnt</w>
ge schaffen</w>
ge hasst</w>
ge googelt</w>
g rin
g love</w>
g le
g alt</w>
für chtete</w>
für chtet</w>
fä hi
fri sche</w>
fri ghtened</w>
frei willig</w>
fre undet</w>
fre ed</w>
fra med</w>
forei gn</w>
for es
flu cht</w>
fi cation</w>
ff i</w>
fen ster</w>
fe ar
faszin iert</w>
far ewell</w>
fanta stische</w>
fal scher</w>
fair ly</w>
faci lity</w>
fa v
fa stest</w>
f ton</w>
f ant</w>
ey e
experim ents</w>
exi sts</w>
ex tin
ex hales</w>
ev a</w>
ett is</w>
et ly</w>
est ed</w>
erzi elen</w>
ersta un
erst örung</w>
ersch reckt</w>
erklär te</w>
erfü llen</w>
erfor dert</w>
er öffnet</w>
er schießen</w>
er mitt
er holt</w>
er holen</w>
er finden</w>
er end</w>
eph ant</w>
environ mental</w>
entwick elten</w>
enth alten</w>
ent re
enjo ying</w>
en z
en ge</w>
en des</w>
empa thy</w>
emp finde</w>
emeter y</w>
ell is</w>
elimin ieren</w>
elec tron
ele gan
el f</w>
el ephant</w>
el ements</w>
einfa che</w>
ein setzen</w>
ein iger</w>
eil te</w>
eifer süchtig</w>
edu cation</w>
ech tes</w>
e ste</w>
e my</w>
e de</w>
durch ziehen</w>
drei mal</w>
dr íguez</w>
dr a</w>
dou ble
do om
discus sing</w>
disc lose</w>
din g
diesel ben</w>
dialo gue</w>
di umsdiskussion</w>
di stin
di sin
di re
di plom
di ges</w>
develop ing</w>
dest iny</w>
descri be</w>
depri miert</w>
den schaft</w>
den d</w>
deliber ately</w>
de mü
dau erte</w>
d ome</w>
d liche</w>
d hood</w>
cu it</w>
cri sis</w>
cour ts</w>
coun sel</w>
correc ted</w>
controll ed</w>
conta min
consi stent</w>
con temp
con fusion</w>
con front</w>
comple ted</w>
communi cation</w>
com a</w>
col oni
co des</w>
co ast</w>
clo thing</w>
clo set</w>
clin ed</w>
cin ema</w>
cigar ette</w>
cht an</w>
chil dhood</w>
chem ical</w>
che at</w>
ch up</w>
ch el</w>
car ed</w>
candi dates</w>
c unt</w>
c ents</w>
bü cher</w>
bur p</w>
bu tt
bu querque</w>
brie fing</w>
break through</w>
br eiten</w>
br eit</w>
bo ta</w>
bo den</w>
blea ched</w>
blan k</w>
bl essed</w>
bi tter</w>
bi ik
bi eren</w>
bi an</w>
beza hlte</w>
beschuldi gt</w>
besch weren</w>
ber ücksich
ber ry</w>
ber ichten</w>
ber eu
benö tigen</w>
benu tzte</w>
ben ehmen</w>
beeinflus st</w>
bede ckt</w>
be sitzen</w>
be sides</w>
be hält</w>
be herr
be fördert</w>
be freundet</w>
be dienen</w>
be am
bau te</w>
bath tub</w>
bas eball</w>
ba hnen</w>
b lasen</w>
b ere</w>
b end</w>
b ein</w>
b chen</w>
b aum</w>
auth ority</w>
aus drücken</w>
auf tauchen</w>
auf machen</w>
auf holen</w>
au tos</w>
au to
att end</w>
athle tics</w>
at titude</w>
associ ate</w>
art wechsel</w>
arran ged</w>
ar uz</w>
ar seh
ar se</w>
ar r
ar n</w>
ar en</w>
app le</w>
ap ology</w>
any ones</w>
antwor tet</w>
ann en
ani sches</w>
ani scher</w>
an statt</w>
an sieht</w>
an scheinend</w>
an lage</w>
an gri
an fühlt</w>
ali siert</w>
al though</w>
ag gressive</w>
ad venture</w>
ad ults</w>
ackno wledge</w>
ach ieve</w>
accu rate</w>
accep table</w>
absol ute</w>
ab springen</w>
ab gegeben</w>
ab ani</w>
a ward</w>
a tions
a th</w>
a terin</w>
a mm
Zurü ck
Zu vor</w>
Zauber er</w>
Za hl
Z unge</w>
Y ermu
X an
Woh nungen</w>
Wo ckeez</w>
Win ston</w>
Wil ker
Wich tigste</w>
Wich tiges</w>
Wi zard</w>
Wh er
Wer de</w>
War nung</w>
Wal king</w>
W unde</w>
W right</w>
W ern
Vor sichtig</w>
Vor fälle</w>
Vor fall</w>
Vik tor</w>
Vi si
Vergewal tigungen</w>
Verge sst</w>
Verfü gung</w>
Ver träge</w>
Ver tre
Ver til
Ver mis
Ver an
V I
V EN
Unter richt</w>
Unter nehmer</w>
Un möglich</w>
Um wel
Um gebung</w>
U l
U V
Tur ni
Tuch man</w>
Tro cken
Trin k</w>
Tri cks</w>
Tri ath
Tran sport</w>
Ton artwechsel</w>
That ll</w>
Tha i</w>
Th ough</w>
Temper atur</w>
Tea ms</w>
Te enager</w>
Tan aruz</w>
Tan aka</w>
TH E</w>
T ill</w>
T had</w>
T S
Sän ger</w>
Syri en</w>
Stu dio
Stra ight</w>
Sto ck
Sti rn</w>
Stell t</w>
Stei g</w>
Sta ttdessen</w>
Sta ffel</w>
Sprün ge</w>
Sport art</w>
Spen cer</w>
Sp ru
Sp or
Sp ion</w>
Som mer
So on</w>
Sk y
Si x</w>
Si x
Si ster</w>
Shu fle</w>
Sho w
Shar p</w>
Sen illosa</w>
Selbstmor d</w>
Sel t
Sel ena</w>
Se al
Schü sse</w>
Schwar z
Schlag zei
Schl uss
Schildkrö te</w>
Schil de</w>
Sch önen</w>
Sch uldi
Sch ro
Sch icht</w>
San tos</w>
Sal gado</w>
ST E</w>
S icht</w>
S emin
S cor
S A
Roo m</w>
Rol and</w>
Rob by</w>
Rob ben
Ro y
Ro g</w>
Ro dríguez</w>
Ro cky</w>
Reli gion</w>
Re gie</w>
Re cht
Rav ns</w>
Rau b</w>
Ra hmen</w>
RI E
R up
R unden</w>
Qu ickly</w>
Provo st</w>
Profi l</w>
Produ kte</w>
Prie ster</w>
Pol y
Po diumsdiskussion</w>
Pin os</w>
Pilo ten</w>
Pi raten</w>
Pho to</w>
Phili pp
Per kins</w>
Pen is</w>
Pas st</w>
Pa vill
Pa ige</w>
P P
P A</w>
Organ e</w>
Or der</w>
Olkar ion</w>
Off izi
Off ice</w>
OR ALL
ORALL EN
O mura</w>
O k
O fen</w>
O d
O bst</w>
O Gs</w>
Not fall
Nor mally</w>
Nor den</w>
No things</w>
Nipples AndTo
Nik ita</w>
Nick erchen</w>
Nic ely</w>
Neu n</w>
Netzwerk Gen</w>
Ne gro</w>
Nac oles</w>
Na gor
NA SA</w>
N ü
N ine</w>
N ight</w>
N ei
N C
NC ME
NCME C</w>
Mün ze</w>
Mü tter</w>
Mu tation</w>
Mu sch
Moment an</w>
Mom s</w>
Mo ore</w>
Miss verständnis</w>
Minister in</w>
Min der
Militär s</w>
Mer k
Mein ungs
Mei stens</w>
McLar en</w>
Mas ke</w>
Mas hito</w>
Marc elo</w>
Mani itok</w>
Mana ger</w>
Man tel</w>
Ma gst</w>
Ma che</w>
M ON
M IT
Lö cher</w>
Lu cky</w>
Lu chtan</w>
Lo th
Li ves</w>
Li ve
Li ppen</w>
Lei denschaft</w>
Le o</w>
Le an</w>
Latin os</w>
Las er</w>
La une</w>
La ster</w>
L ichter</w>
L eine</w>
L ein
L ange</w>
L EI
Küs schen</w>
Kü ste</w>
Kön i
Ku bota</w>
Ku biik
Kri tiker</w>
Kre atur</w>
Kra ft
Kr one</w>
Kostü m</w>
Konkurren z</w>
Kon zert</w>
Kon zentri
Kommuni ka
Kjar tans</w>
Ki p</w>
Kanin chen</w>
Ka ttegat</w>
Ka is
K lar
K lang</w>
K auf
K ali
K ORALLEN
Jähri ge</w>
Ju ice</w>
Ju dge</w>
Ju an</w>
Jord ans</w>
Jon gsuk</w>
Jo int</w>
Jo elle</w>
Jer emy</w>
Jahrzeh nt</w>
Jahr hunder
Jag d</w>
Jac obo</w>
Ja ime</w>
J ün
Ir re</w>
Inter net
In telligen
In sta
In fe
Ig nor
IS IS</w>
I chs</w>
Hä ft
Hypothe k</w>
Ho sen</w>
Ho dor</w>
Hit ze</w>
Hir n</w>
Hin weise</w>
Hi ro
Herz lichen</w>
Herr gott</w>
Heming way</w>
Harv ard</w>
Hal ig</w>
Haar en</w>
Ha ttest</w>
Ha fen</w>
H ex
H em</w>
H E
Gü tiger</w>
Gä ste</w>
Grund stück</w>
Gre y</w>
Gra tu
Gra d</w>
Gr oup</w>
Gi ft</w>
Gi bst</w>
Geschä fte</w>
Geschä ft
Ges ichter</w>
Gent leman</w>
Gem ü
Gegen wart</w>
Gefü hlen</w>
Gefän gnis
Ge wohn
Ge fällt</w>
Gar th</w>
G ate</w>
G as
G abri
FÜ HR
Funktion iert</w>
Frem den</w>
Forsch ungs
Foot ball
Flug körper</w>
Fle cken</w>
Fitzpatri ck</w>
Finger ab
Fi del
Fernseh er</w>
Fer rar
Fei ern</w>
Fe bru
Face book</w>
FA D</w>
F emin
F aust</w>
F angen</w>
F O
Explo sion</w>
Este fan</w>
Erwachsen e</w>
Erleb nis</w>
Eri c</w>
Er nest
Einwan der
Edi son</w>
E tt</w>
E ikanger</w>
E din
E AR
Dri ve</w>
Drehbuch au
Dou glass</w>
Doll ar
Den noch</w>
Den k
Deir dre</w>
De pression</w>
De kan</w>
Dar lene</w>
Da ily</w>
Da igo</w>
Da dd
DV D</w>
D s</w>
D ance</w>
D ES</w>
D E</w>
Cra cker</w>
Coun cil
Col ts</w>
Cl aus</w>
Cin dy</w>
Chi efs</w>
Ch or</w>
Ch efs</w>
Camp us</w>
Ca f
C r
C o</w>
Bü hn
Bur rows</w>
Brun nen</w>
Bro s</w>
Brau chen</w>
Bower man</w>
Boo te</w>
Bonus runde</w>
Blo cks</w>
Bio antrieb</w>
Bewusst sein</w>
Bet rug</w>
Bes äufnis</w>
Bermu des</w>
Ber nar
Ber ichte</w>
Bei trag</w>
Bei leid</w>
Be zir
Be wegungen</w>
Be schreibung</w>
Be oba
Be ck
Bas ketball
Bas ically</w>
Bar rel</w>
Bal ken</w>
Ba stard</w>
Ba be</w>
B onny</w>
B eu
B Proben</w>
Außen sei
Auf grund</w>
Auf gaben</w>
Auf enth
Au tom
Atmosp häre</w>
Archite kten</w>
Anti bio
An zahl</w>
An tok</w>
An scheinend</w>
Amt senthe
Amerik anern</w>
Alex a</w>
Al ter
Al len</w>
Al buquerque</w>
Akti vitäten</w>
Ak abani</w>
Af ghani
Aeth elwulf</w>
Acker man</w>
Ab sichten</w>
Ab gesehen</w>
AN E</w>
A spe
A mendment</w>
A greed</w>
A ction</w>
A ber
6 5</w>
2 9</w>
2 5000</w>
198 4</w>
196 2</w>
1 st</w>
1 1
überra schend</w>
über lege</w>
über fallen</w>
über fahren</w>
ö pf
ö hlich
ó k</w>
ð br
ðbr ók</w>
äu sche</w>
än ner</w>
ä le</w>
Über prü
Über leben</w>
Ö ko
Æth elwulf</w>
Ärz tin</w>
Ä u
zä h
zuver sichtlich</w>
zus prechen</w>
zurück lassen</w>
zurück bringen</w>
zentr um</w>
z zi
z isch</w>
ysi tter</w>
yo un
youn gest</w>
xy gen</w>
x el</w>
wür det</w>
wom ens</w>
wle dged</w>
wir kst</w>
wi fes</w>
who ve</w>
weiter gehen</w>
weib lichen</w>
wei le</w>
week ly</w>
we st
we l</w>
we ge</w>
war teten</w>
wack lig</w>
wa hn
w ne</w>
vor m</w>
volun te
vocali zing</w>
visi tors</w>
visi ted</w>
vis u
vi erte</w>
verär gert</w>
verwand elt</w>
versu chten</w>
versich ert</w>
verpflich tet</w>
vermitt elt</w>
vermas selt</w>
verab schie
ver änderung</w>
ver trag</w>
ver tical</w>
ver stär
ver sorgung</w>
ver mö
ver lange</w>
ven ess</w>
valu able</w>
v t</w>
v ac
ut ure</w>
us en</w>
us eful</w>
unter schrieben</w>
uni tion</w>
uni si
under esti
und ry</w>
un nötig</w>
un like</w>
un glücklich</w>
un fortunate</w>
un en</w>
un ackno
unackno wledged</w>
ultima tive</w>
ul len</w>
täu schen</w>
tw ins</w>
tur en</w>
tto o</w>
tschü ss</w>
tschri tt
tru mp
tri g
tri c</w>
tre u</w>
tre te</w>
trau ri
trau mati
trau m
trans ferred</w>
trans fer</w>
tra v
tr ü
tr äch
tis sue</w>
ticul arly</w>
ti ous</w>
ti ef
thum bs</w>
thro ws</w>
thro wn</w>
ther ine</w>
thea ters</w>
the me</w>
the k</w>
th ouse</w>
tex ted</w>
terri fying</w>
terri fied</w>
terri bly</w>
terr ori
ten sion</w>
ten e</w>
telefon iert</w>
te en
te book</w>
tal er</w>
tab ase</w>
ta x
ta tor</w>
ta ted</w>
ta pes</w>
ta ining</w>
ta bel</w>
t win</w>
t st</w>
t sche</w>
t nä
tnä ck
t lichen</w>
t aller</w>
süd kore
syn the
swit ched</w>
surro unded</w>
suppor ted</w>
supp lies</w>
super visor</w>
subpo ena</w>
sub committee</w>
su cked</w>
stän digen</w>
studi erte</w>
stu died</w>
struggl ed</w>
stro ke</w>
stri ctly</w>
strate gic</w>
stra hlt</w>
sto ked</w>
stimm te</w>
sti sches</w>
sti eren</w>
sten liste</w>
state ments</w>
star ving</w>
star tet</w>
stand ard</w>
stab ili
stab il</w>
sta ged</w>
st rä
st ones</w>
st il
ssi ge</w>
ss ern</w>
spä tung</w>
sp äten</w>
sp häre</w>
sp ei
so zusagen</w>
so was</w>
smu ggling</w>
smil ing</w>
sm it
sli ding</w>
sion ary</w>
sin ken</w>
signi fi
sho cking</w>
shi r
shar ply</w>
shar p</w>
sh ore</w>
sh ment</w>
seu f
sen ce</w>
selbst verständlich</w>
selbst bewusst</w>
sel fe
sei tdem</w>
seas ons</w>
se ys</w>
se venth</w>
scri ption</w>
schwind lig</w>
schwar zes</w>
scho ol
schmu tzig</w>
schlimm sten</w>
schli mme</w>
schle chtes</w>
schie ßt</w>
schie f</w>
schi ck</w>
schen kte</w>
schein st</w>
schei be</w>
sch usses</w>
sch of</w>
sch eu
sch aum</w>
sc ope</w>
sau cers</w>
sau ber
sacrifi ced</w>
sa t
sa bo
sa ble</w>
s ungs
s mack</w>
s ert</w>
ru led</w>
rob bed</w>
ro tten</w>
ro cks</w>
risk iert</w>
ries iger</w>
rie fen</w>
rich tungen</w>
rich en</w>
ri te</w>
resig nation</w>
residen ts</w>
reli gion</w>
rela tiv</w>
recht fertigen</w>
rech er
reas onable</w>
rea ching</w>
re tte</w>
re solution</w>
re gen</w>
raus werfen</w>
rau chen</w>
rassi stisch</w>
ran cher</w>
ra w</w>
r ung
r st</w>
r on</w>
r auf</w>
r are</w>
r annte</w>
quali fy</w>
quali fied</w>
publi sh</w>
pu ri
psychologi cal</w>
präsen tieren</w>
pro ving</w>
pro ved</w>
pro ps</w>
priv at</w>
pri ze</w>
pri ority</w>
presen tation</w>
prene ur</w>
pre c
prec isely</w>
practic ing</w>
pol is</w>
po ses</w>
po o</w>
pl ä
pin keln</w>
physi cs</w>
photogra pher</w>
pf ei
persön liche</w>
per form</w>
per ation</w>
pe an</w>
pay ments</w>
pan ting</w>
pan de
palad ins</w>
pa irs</w>
pa int
pa cking</w>
p top</w>
p reis
p i</w>
p ha
p fle
ous ine</w>
our ing</w>
origin ally</w>
or gan</w>
op ar
oo s</w>
oo m</w>
on eh
om ing
oming d
omingd ales</w>
olo ge</w>
occas ion
o xygen</w>
o ved</w>
o v
o ts</w>
o thek</w>
o li
nu tz
ni pp
ni c</w>
newspa pers</w>
newspa per</w>
neu ro
net ten</w>
nei disch</w>
near est</w>
ne phe
natür liche</w>
nah me
na iled</w>
na he
n ungs
n omin
n isch</w>
n irgends</w>
mü tlich</w>
möglich erweise</w>
mäch tigen</w>
my th</w>
mus eum</w>
mu ster</w>
mu d</w>
motiv ated</w>
mother fucking</w>
mittl eren</w>
mit machen</w>
mis understanding</w>
min ierung</w>
mil ton</w>
mi x
mi tting</w>
mi esen</w>
mension al</w>
mat ches</w>
mark eting</w>
mar sch
mana gement</w>
magne tic</w>
mach ines</w>
ma ted</w>
ma ma</w>
ma ker</w>
m te</w>
m our
m end</w>
m ant</w>
lö schen</w>
lä dt</w>
loo kin</w>
lo hnt</w>
liqu or</w>
lin ken</w>
lin ie</w>
limit ed</w>
li sted</w>
letz tendlich</w>
ler ne</w>
legiti mate</w>
leg ten</w>
leb ten</w>
leb end</w>
le verage</w>
le ment</w>
le gen
le ck
law suit</w>
lar gest</w>
la unched</w>
la de</w>
la dder</w>
l Ã</w>
l ure</w>
l ernst</w>
l ens</w>
könn tet</w>
kä l
kur zer</w>
komple x</w>
kom mer
kna cken</w>
kl äre</w>
kis sed</w>
ke ts</w>
ke st</w>
ka te</w>
ka de
k u</w>
k ts</w>
k tor
k it</w>
k icking</w>
k ichert</w>
k eins</w>
k al</w>
justi fy</w>
ju diciary</w>
jo ining</w>
ji ziert</w>
jer sey</w>
je opar
je cted</w>
ja g
j et
j ar</w>
it alien
is sen
is hes</w>
ir ren</w>
ir relevant</w>
ir on
invol ve</w>
inv itation</w>
interes sierte</w>
inter ro
inter planet
inten ded</w>
intelle c
instru ctor</w>
inst itu
ins ist</w>
ini tial</w>
in king</w>
in ett</w>
in au
inau gu
in appropriate</w>
impea ch
il a</w>
ier ungs
ie te</w>
identifi ziert</w>
ich tung</w>
i ze</w>
i x</w>
i sten</w>
i ors</w>
i ons</w>
häu fig</w>
hor se
hor ror</w>
hoff te</w>
ho se</w>
hinzu fügen</w>
hin sehen</w>
heu tzutage</w>
herum zu
her vor</w>
her ein</w>
her an</w>
hel m
hei lige</w>
head phones</w>
he stand</w>
he a</w>
harm los</w>
har dest</w>
ha ften</w>
ha bit</w>
h es
gän glich</w>
gun fire</w>
gu ts</w>
gu essing</w>
grün dlich</w>
grü ß
größ ter</w>
großzü gig</w>
gressi onal</w>
gren zen</w>
gratu liere</w>
gr as
go tt
gi cal</w>
gi an</w>
gewi sser</w>
gewal tige</w>
geschei tert</w>
gesch o
gesch nappt</w>
gesch enk</w>
ges unden</w>
gerei st</w>
ger ä
ger en</w>
ger echt</w>
gele bt</w>
gelan gt</w>
geh eilt</w>
geh andelt</w>
gegen über
gefähr liche</w>
geflo hen</w>
gef ei
gebäu de</w>
ge treten</w>
ge sichert</w>
ge pla
ge mütlich</w>
ge mä
ge gründet</w>
ge do
ge dient</w>
ge ars</w>
gan gs
g ge</w>
für chter
fän gst</w>
fän de</w>
fähig keiten</w>
fä llen</w>
free zing</w>
fre qu
fr ist</w>
for tschritt
for gi
foo li
flü ssig</w>
flo gen</w>
flie genden</w>
fla gs</w>
fire fighter</w>
finan ziert</w>
fin gen</w>
fi tting</w>
fi ghts</w>
fi elds</w>
fi cial</w>
ff in</w>
ff et</w>
festi val</w>
fest zuhalten</w>
fest gehalten</w>
fes thält</w>
fern halten</w>
fehl te</w>
fe ste</w>
fascin ating</w>
fa ck
f tlich</w>
f old</w>
f euert</w>
f ers</w>
f alle</w>
explo sive</w>
expla ins</w>
exp li
ex po
ex pi
ex hi
evacu ate</w>
ev en
et ry</w>
et es</w>
et ern
essen tial</w>
es selt</w>
erwä hnte</w>
err and</w>
ero bern</w>
ernä hren</w>
erkl äre</w>
er setzt</w>
er setzen</w>
er ror</w>
er pre
er möglichen</w>
er hin</w>
entwick elte</w>
enttäu schen</w>
enthusi a
ent werfen</w>
ent standen</w>
ent sprech
ent nehmen</w>
enga ge</w>
en ke</w>
en ess</w>
en da</w>
en cy</w>
en coura
emp fehlen</w>
emp fand</w>
em ü
em pire</w>
em onie</w>
ele vation</w>
ele cted</w>
einzi g</w>
einfl uss
ein st</w>
ein fangen</w>
ei lig</w>
ehr er</w>
ehem al
eh nt</w>
ego istisch</w>
egh Gul
eghGul d
eghGuld berg</w>
edu cated</w>
ea ger</w>
e wi
e dom</w>
e co
e bye</w>
durch suchen</w>
durch halten</w>
du g</w>
druck s
dri ves</w>
dri ft</w>
dr ungen</w>
dol phin</w>
disor der</w>
discus sed</w>
disappo int</w>
dis covery</w>
direc ting</w>
diffic ul
di rt</w>
di p</w>
di arr
diarr hea</w>
deut schen</w>
determin ation</w>
desig nt</w>
dent ally</w>
demon strieren</w>
deli ver
deli ghted</w>
deli cate</w>
dein etwegen</w>
deci ding</w>
de uten</w>
de termine</w>
de pressi
dd ling</w>
dam ned</w>
da zu
da tabase</w>
da heim</w>
da ddy</w>
d ous</w>
d ons</w>
d ges</w>
d ei
cra ts</w>
cr y
cow boy</w>
cour ses</w>
cou p</w>
conver sations</w>
controll ing</w>
consci ousness</w>
con text</w>
con doms</w>
compani on</w>
comm un
com pound</w>
com plain</w>
com bin
col ors</w>
co ck
clear ance</w>
cle aning</w>
ck in</w>
civili zations</w>
cht um</w>
charac ters</w>
[...]
